{
    "2003": 1,
    "socks": 1,
    "auxiliary": 1,
    "##guchi": 1,
    "##abulous": 1,
    "corpus": 1,
    "gunshot": 1,
    "shortened": 1,
    "navy": 1,
    "refusal": 1,
    "vaulted": 1,
    "waving": 1,
    "upright": 1,
    "alloy": 1,
    "jumper": 1,
    "\u044d": 1,
    "\u0448": 1,
    "##\u0439": 1,
    "##\u044e": 1,
    "##chase": 1,
    "whipped": 1,
    "bargain": 1,
    "nave": 1,
    "clutched": 1,
    "\u306b": 1,
    "##\u304a": 1,
    "##\u3044": 1,
    "joking": 1,
    "whale": 1,
    "##upon": 1,
    "strap": 1,
    "moths": 1,
    "census": 1,
    "sobs": 1,
    "estuary": 1,
    "##ingen": 1,
    "##tah": 1,
    "\u0621": 1,
    "cleaned": 1,
    "1860": 1,
    "cabinets": 1,
    "neutron": 1,
    "##hady": 1,
    "##rook": 1,
    "torque": 1,
    "##\u0131": 1,
    "shotgun": 1,
    "##\u00fan": 1,
    "balls": 1,
    "750": 1,
    "##chus": 1,
    "##dus": 1,
    "dei": 1,
    "loosened": 1,
    "##chor": 1,
    "lawyers": 1,
    "##icidal": 1,
    "directorial": 1,
    "outstretched": 1,
    "artillery": 1,
    "migrant": 1,
    "##zee": 1,
    "##edia": 1,
    "##ophone": 1,
    "##hua": 1,
    "loser": 1,
    "mercenary": 1,
    "##sity": 1,
    "oversaw": 1,
    "##entry": 1,
    "cavity": 1,
    "folder": 1,
    "hooks": 1,
    "novelist": 1,
    "inscriptions": 1,
    "gel": 1,
    "51": 1,
    "horseback": 1,
    "slide": 1,
    "sabotage": 1,
    "##cake": 1,
    "##teca": 1,
    "##iably": 1,
    "reinstated": 1,
    "1834": 1,
    "wrestled": 1,
    "reigning": 1,
    "reviewers": 1,
    "##ested": 1,
    "##rax": 1,
    "reactors": 1,
    "geographically": 1,
    "##dial": 1,
    "##group": 1,
    "preface": 1,
    "##ike": 1,
    "qualify": 1,
    "##oting": 1,
    "creepy": 1,
    "##ogan": 1,
    "capita": 1,
    "upstream": 1,
    "alcoholic": 1,
    "##ritz": 1,
    "##solation": 1,
    "teammate": 1,
    "chestnut": 1,
    "##liva": 1,
    "mainland": 1,
    "##mah": 1,
    "hydraulic": 1,
    "stationary": 1,
    "motionless": 1,
    "drawers": 1,
    "##sdale": 1,
    "daughters": 1,
    "synthesized": 1,
    "##phus": 1,
    "killing": 1,
    "mutations": 1,
    "##uintet": 1,
    "##\u00e8me": 1,
    "##dier": 1,
    "bitterness": 1,
    "enclosed": 1,
    "##berto": 1,
    "##mined": 1,
    "dreadful": 1,
    "tilting": 1,
    "##former": 1,
    "##geny": 1,
    "broadcaster": 1,
    "##horn": 1,
    "##rians": 1,
    "##rar": 1,
    "proceeding": 1,
    "annoying": 1,
    "bumper": 1,
    "anger": 1,
    "##pressed": 1,
    "##ynasties": 1,
    "rushed": 1,
    "dictionary": 1,
    "##wski": 1,
    "##rough": 1,
    "##nko": 1,
    "##vana": 1,
    "41": 1,
    "explode": 1,
    "burying": 1,
    "denoted": 1,
    "projecting": 1,
    "##suming": 1,
    "wreck": 1,
    "pumped": 1,
    "branched": 1,
    "##\u05d0": 1,
    "attach": 1,
    "translations": 1,
    "##ynamite": 1,
    "geology": 1,
    "grassy": 1,
    "##tudes": 1,
    "domination": 1,
    "##urer": 1,
    "accredited": 1,
    "criticizing": 1,
    "##ender": 1,
    "##fted": 1,
    "\u3068": 1,
    "asks": 1,
    "##nso": 1,
    "km": 1,
    "rifle": 1,
    "resentment": 1,
    "##hyl": 1,
    "terminal": 1,
    "##hart": 1,
    "hesitated": 1,
    "##iko": 1,
    "overturned": 1,
    "garrison": 1,
    "##iler": 1,
    "alias": 1,
    "hopeless": 1,
    "##ssen": 1,
    "##\u0631": 1,
    "screenwriter": 1,
    "dresses": 1,
    "cute": 1,
    "flank": 1,
    "spacious": 1,
    "plateau": 1,
    "##quel": 1,
    "documentaries": 1,
    "##hard": 1,
    "##church": 1,
    "patented": 1,
    "gallons": 1,
    "frontman": 1,
    "##finger": 1,
    "saxophone": 1,
    "confirmation": 1,
    "anxiously": 1,
    "hereditary": 1,
    "\u00f4": 1,
    "bends": 1,
    "centred": 1,
    "exhibiting": 1,
    "##rdy": 1,
    "declined": 1,
    "baroque": 1,
    "touchdown": 1,
    "##nah": 1,
    "1798": 1,
    "undead": 1,
    "pirate": 1,
    "associates": 1,
    "##irs": 1,
    "##combe": 1,
    "televised": 1,
    "prolific": 1,
    "##ogo": 1,
    "reservoirs": 1,
    "hired": 1,
    "senate": 1,
    "##histling": 1,
    "remake": 1,
    "ventilation": 1,
    "tub": 1,
    "chuckled": 1,
    "capped": 1,
    "##blast": 1,
    "trolley": 1,
    "downloads": 1,
    "##essed": 1,
    "\u20ac": 1,
    "##60": 1,
    "unemployed": 1,
    "##gned": 1,
    "waist": 1,
    "slamming": 1,
    "##cognition": 1,
    "fellowship": 1,
    "##dged": 1,
    "##ettes": 1,
    "messed": 1,
    "withdraw": 1,
    "##shore": 1,
    "editor": 1,
    "colours": 1,
    "##nden": 1,
    "residues": 1,
    "racism": 1,
    "1874": 1,
    "faintly": 1,
    "##held": 1,
    "##ares": 1,
    "dad": 1,
    "concession": 1,
    "memorial": 1,
    "landowners": 1,
    "waited": 1,
    "denies": 1,
    "coughing": 1,
    "playoff": 1,
    "unstable": 1,
    "shaky": 1,
    "##rya": 1,
    "surveying": 1,
    "stung": 1,
    "editorial": 1,
    "newspaper": 1,
    "##rilla": 1,
    "commissioners": 1,
    "##rung": 1,
    "unfinished": 1,
    "dean": 1,
    "##rose": 1,
    "##anna": 1,
    "tenant": 1,
    "horsepower": 1,
    "##asco": 1,
    "boiler": 1,
    "##teen": 1,
    "plaintiff": 1,
    "lawsuit": 1,
    "expelled": 1,
    "discrete": 1,
    "fastened": 1,
    "exits": 1,
    "ballroom": 1,
    "secondly": 1,
    "1964": 1,
    "wards": 1,
    "##aines": 1,
    "boiled": 1,
    "assigns": 1,
    "polynomial": 1,
    "denote": 1,
    "murmured": 1,
    "61": 1,
    "##tley": 1,
    "pounded": 1,
    "1819": 1,
    "mollusk": 1,
    "\u0445": 1,
    "beaten": 1,
    "servant": 1,
    "##uce": 1,
    "wives": 1,
    "##mable": 1,
    "\u3081": 1,
    "##\u3066": 1,
    "shivering": 1,
    "\u4e8c": 1,
    "\u8c37": 1,
    "##fs": 1,
    "##ually": 1,
    "##21": 1,
    "tops": 1,
    "rumor": 1,
    "entertained": 1,
    "rebranded": 1,
    "sighed": 1,
    "##cloth": 1,
    "##mail": 1,
    "rim": 1,
    "##mple": 1,
    "##allo": 1,
    "bronze": 1,
    "descriptive": 1,
    "splitting": 1,
    "##logue": 1,
    "takeoff": 1,
    "##erly": 1,
    "##genic": 1,
    "##pore": 1,
    "##\u00fal": 1,
    "monarchy": 1,
    "unitary": 1,
    "##\u2500": 1,
    "electron": 1,
    "parachute": 1,
    "excuse": 1,
    "##\u00e8ne": 1,
    "##\u00dfe": 1,
    "bared": 1,
    "loading": 1,
    "utter": 1,
    "unclear": 1,
    "bosses": 1,
    "##quatorial": 1,
    "disturbed": 1,
    "postgraduate": 1,
    "tugged": 1,
    "sacks": 1,
    "##aled": 1,
    "mixes": 1,
    "52": 1,
    "hiatus": 1,
    "tubes": 1,
    "muffled": 1,
    "reopened": 1,
    "blocked": 1,
    "forested": 1,
    "sweaty": 1,
    "bedside": 1,
    "thereafter": 1,
    "##eological": 1,
    "milling": 1,
    "yeast": 1,
    "baron": 1,
    "mediated": 1,
    "gambling": 1,
    "reproduce": 1,
    "##ggled": 1,
    "prisoner": 1,
    "walled": 1,
    "retrieve": 1,
    "##kov": 1,
    "##nounce": 1,
    "campaigned": 1,
    "1992": 1,
    "flushed": 1,
    "insertion": 1,
    "mineral": 1,
    "chilled": 1,
    "programmed": 1,
    "preceded": 1,
    "pubs": 1,
    "imperial": 1,
    "townships": 1,
    "freed": 1,
    "courtroom": 1,
    "receivers": 1,
    "disagreements": 1,
    "##roid": 1,
    "curls": 1,
    "porcelain": 1,
    "mound": 1,
    "1892": 1,
    "twentieth": 1,
    "##grapher": 1,
    "template": 1,
    "splits": 1,
    "motives": 1,
    "invaded": 1,
    "backpack": 1,
    "anthropology": 1,
    "html": 1,
    "petrol": 1,
    "reviewer": 1,
    "heaved": 1,
    "swollen": 1,
    "affiliation": 1,
    "similarities": 1,
    "##aret": 1,
    "##tten": 1,
    "\u300c": 1,
    "\u300d": 1,
    "##reen": 1,
    "##ritic": 1,
    "##bana": 1,
    "##rban": 1,
    "##inga": 1,
    "##rok": 1,
    "##30": 1,
    "##lour": 1,
    "##zin": 1,
    "rocked": 1,
    "rescued": 1,
    "grasses": 1,
    "veterinary": 1,
    "##ieving": 1,
    "inclination": 1,
    "##tton": 1,
    "##coil": 1,
    "310": 1,
    "cage": 1,
    "examinations": 1,
    "##tica": 1,
    "bouts": 1,
    "pillows": 1,
    "##pper": 1,
    "##mbre": 1,
    "##hly": 1,
    "moaning": 1,
    "horrible": 1,
    "radiated": 1,
    "graphs": 1,
    "epithet": 1,
    "calf": 1,
    "tract": 1,
    "substrate": 1,
    "yacht": 1,
    "towel": 1,
    "##\u05e4": 1,
    "##restle": 1,
    "admissions": 1,
    "sighted": 1,
    "specify": 1,
    "annexed": 1,
    "##ucking": 1,
    "reinforcements": 1,
    "dwarf": 1,
    "prince": 1,
    "relocation": 1,
    "speeding": 1,
    "sworn": 1,
    "trunk": 1,
    "##building": 1,
    "##jak": 1,
    "vampire": 1,
    "circulated": 1,
    "modeled": 1,
    "\u0444": 1,
    "\u0433": 1,
    "##\u0443": 1,
    "##\u043f": 1,
    "\u0440": 1,
    "##\u0446": 1,
    "snuck": 1,
    "##\u00f4": 1,
    "clue": 1,
    "shooting": 1,
    "flattened": 1,
    "princess": 1,
    "\u0645": 1,
    "##\u0629": 1,
    "mines": 1,
    "\u6b66": 1,
    "relieved": 1,
    "parliamentary": 1,
    "slept": 1,
    "lashes": 1,
    "toys": 1,
    "1823": 1,
    "1825": 1,
    "1826": 1,
    "1828": 1,
    "1831": 1,
    "1830": 1,
    "chimney": 1,
    "comedies": 1,
    "##t\u00e9": 1,
    "pianist": 1,
    "##80": 1,
    "aquarium": 1,
    "obey": 1,
    "##sting": 1,
    "##fly": 1,
    "\u00e4": 1,
    "##27": 1,
    "incarcerated": 1,
    "\u674e": 1,
    "\u00eb": 1,
    "burnt": 1,
    "tailed": 1,
    "irritation": 1,
    "##joy": 1,
    "processors": 1,
    "##jit": 1,
    "##stead": 1,
    "successors": 1,
    "captive": 1,
    "beetle": 1,
    "axe": 1,
    "hurry": 1,
    "\u0646": 1,
    "beetles": 1,
    "vaguely": 1,
    "rebel": 1,
    "##burn": 1,
    "##course": 1,
    "bugs": 1,
    "insanity": 1,
    "09": 1,
    "##sume": 1,
    "odor": 1,
    "##kker": 1,
    "acidic": 1,
    "reddish": 1,
    "concentrated": 1,
    "1784": 1,
    "bail": 1,
    "snapping": 1,
    "##zuki": 1,
    "##ffy": 1,
    "##hay": 1,
    "birthday": 1,
    "ripping": 1,
    "1924": 1,
    "31": 1,
    "59": 1,
    "briefly": 1,
    "##writer": 1,
    "sarcastic": 1,
    "violate": 1,
    "specimen": 1,
    "abandonment": 1,
    "discharge": 1,
    "leaned": 1,
    "sanctions": 1,
    "complaint": 1,
    "mouths": 1,
    "consist": 1,
    "##miring": 1,
    "charities": 1,
    "consolidated": 1,
    "##lion": 1,
    "glances": 1,
    "reformed": 1,
    "##came": 1,
    "mosque": 1,
    "##usion": 1,
    "1815": 1,
    "##scription": 1,
    "##aire": 1,
    "vain": 1,
    "handsome": 1,
    "##ift": 1,
    "contracting": 1,
    "boss": 1,
    "squeezing": 1,
    "##lover": 1,
    "crashes": 1,
    "pub": 1,
    "##ruising": 1,
    "##missible": 1,
    "commemorating": 1,
    "##gger": 1,
    "##cian": 1,
    "stain": 1,
    "##dges": 1,
    "##otte": 1,
    "novella": 1,
    "##onomy": 1,
    "alerted": 1,
    "whoever": 1,
    "liberated": 1,
    "##hala": 1,
    "##user": 1,
    "39": 1,
    "##45": 1,
    "confusing": 1,
    "distracted": 1,
    "##rcerer": 1,
    "##loop": 1,
    "##lapping": 1,
    "dresser": 1,
    "incurred": 1,
    "##night": 1,
    "##ovo": 1,
    "##continent": 1,
    "##mma": 1,
    "suspected": 1,
    "140": 1,
    "moderately": 1,
    "##olt": 1,
    "##hesia": 1,
    "##rmal": 1,
    "headlights": 1,
    "##bet": 1,
    "##physics": 1,
    "\u2500": 1,
    "##moor": 1,
    "hunted": 1,
    "corrected": 1,
    "follower": 1,
    "forwards": 1,
    "sex": 1,
    "needy": 1,
    "##dron": 1,
    "##\u015b": 1,
    "##agh": 1,
    "##odles": 1,
    "tumbling": 1,
    "heaving": 1,
    "princes": 1,
    "dies": 1,
    "creeping": 1,
    "bows": 1,
    "fangs": 1,
    "##nis": 1,
    "ain": 1,
    "##sworth": 1,
    "##reased": 1,
    "##bies": 1,
    "\u00fc": 1,
    "##aley": 1,
    "##c\u00e9": 1,
    "1755": 1,
    "##tland": 1,
    "##ffed": 1,
    "reconnaissance": 1,
    "conditional": 1,
    "flaming": 1,
    "##eptide": 1,
    "##rnal": 1,
    "roses": 1,
    "##tani": 1,
    "38": 1,
    "\u00a31": 1,
    "##50": 1,
    "comprise": 1,
    "##etics": 1,
    "##idal": 1,
    "##ahu": 1,
    "##12": 1,
    "metabolism": 1,
    "screw": 1,
    "##asperated": 1,
    "flanks": 1,
    "1949": 1,
    "1933": 1,
    "signalling": 1,
    "references": 1,
    "appealed": 1,
    "##chy": 1,
    "onstage": 1,
    "whip": 1,
    "drains": 1,
    "damn": 1,
    "##structure": 1,
    "##egro": 1,
    "paragraph": 1,
    "##bby": 1,
    "inexpensive": 1,
    "1600": 1,
    "##liche": 1,
    "##inas": 1,
    "permanently": 1,
    "polymer": 1,
    "##hashi": 1,
    "fencing": 1,
    "##tford": 1,
    "##lberg": 1,
    "\u0111": 1,
    "##\u1ed5": 1,
    "##\u1edb": 1,
    "disciple": 1,
    "##jured": 1,
    "reject": 1,
    "##cliffe": 1,
    "cops": 1,
    "reappeared": 1,
    "toilet": 1,
    "injured": 1,
    "provoked": 1,
    "56": 1,
    "convince": 1,
    "downloaded": 1,
    "spelling": 1,
    "consulted": 1,
    "greenish": 1,
    "freak": 1,
    "##ailing": 1,
    "206": 1,
    "jewellery": 1,
    "##cated": 1,
    "constituent": 1,
    "onward": 1,
    "##lander": 1,
    "1882": 1,
    "evacuate": 1,
    "interrupting": 1,
    "dispatched": 1,
    "approximate": 1,
    "eleven": 1,
    "messing": 1,
    "supervision": 1,
    "jail": 1,
    "competed": 1,
    "presiding": 1,
    "allegations": 1,
    "erection": 1,
    "monasteries": 1,
    "##cket": 1,
    "##conductor": 1,
    "nun": 1,
    "##ugen": 1,
    "humid": 1,
    "endowment": 1,
    "console": 1,
    "cockpit": 1,
    "wagon": 1,
    "acquisitions": 1,
    "replied": 1,
    "owing": 1,
    "1987": 1,
    "\u0623": 1,
    "##\u062d": 1,
    "##evich": 1,
    "##lex": 1,
    "tumors": 1,
    "\u4e95": 1,
    "##tropy": 1,
    "transmitter": 1,
    "teamed": 1,
    "##i\u00e8re": 1,
    "##cene": 1,
    "##\u044c": 1,
    "sandstone": 1,
    "\u4eac": 1,
    "116": 1,
    "populous": 1,
    "##strom": 1,
    "##kal": 1,
    "stiff": 1,
    "aluminum": 1,
    "erotic": 1,
    "1977": 1,
    "1996": 1,
    "choke": 1,
    "##lane": 1,
    "##iek": 1,
    "##zar": 1,
    "##ruk": 1,
    "tow": 1,
    "##dation": 1,
    "##rred": 1,
    "routinely": 1,
    "gradient": 1,
    "##sonic": 1,
    "##hout": 1,
    "##rata": 1,
    "opener": 1,
    "##ushing": 1,
    "##pelled": 1,
    "cereal": 1,
    "flashes": 1,
    "dialed": 1,
    "##vez": 1,
    "straps": 1,
    "@": 1,
    "tube": 1,
    "800": 1,
    "##\u00f1": 1,
    "cane": 1,
    "1965": 1,
    "##gua": 1,
    "discs": 1,
    "\u0442": 1,
    "##\u0436": 1,
    "\u017c": 1,
    "##bis": 1,
    "muzzle": 1,
    "##xia": 1,
    "insist": 1,
    "##shan": 1,
    "marker": 1,
    "chick": 1,
    "stared": 1,
    "84": 1,
    "##fell": 1,
    "##castle": 1,
    "auditions": 1,
    "##ilities": 1,
    "complained": 1,
    "strangled": 1,
    "sack": 1,
    "prevailed": 1,
    "##tony": 1,
    "##ronology": 1,
    "barge": 1,
    "##uche": 1,
    "replay": 1,
    "##ryan": 1,
    "muttering": 1,
    "streak": 1,
    "driveway": 1,
    "donate": 1,
    "##jin": 1,
    "pinning": 1,
    "##rogate": 1,
    "solved": 1,
    "thank": 1,
    "##chers": 1,
    "quarterback": 1,
    "165": 1,
    "##cter": 1,
    "##ature": 1,
    "visited": 1,
    "commemorative": 1,
    "##\u0219": 1,
    "similarity": 1,
    "##ringing": 1,
    "disappointing": 1,
    "skirt": 1,
    "drumming": 1,
    "##buted": 1,
    "##believable": 1,
    "chanting": 1,
    "##nap": 1,
    "airing": 1,
    "striped": 1,
    "intend": 1,
    "searched": 1,
    "secretly": 1,
    "substituted": 1,
    "auspices": 1,
    "mg": 1,
    "1967": 1,
    "##pment": 1,
    "crater": 1,
    "rotting": 1,
    "fathers": 1,
    "smug": 1,
    "30th": 1,
    "towels": 1,
    "##omorphic": 1,
    "hook": 1,
    "##rrows": 1,
    "writings": 1,
    "tempered": 1,
    "nape": 1,
    "##vout": 1,
    "1962": 1,
    "shootout": 1,
    "##stein": 1,
    "gentleman": 1,
    "surname": 1,
    "hesitate": 1,
    "naval": 1,
    "hockey": 1,
    "lacrosse": 1,
    "golfer": 1,
    "skier": 1,
    "superb": 1,
    "revoked": 1,
    "tentatively": 1,
    "##eck": 1,
    "stuffed": 1,
    "185": 1,
    "whiskey": 1,
    "alto": 1,
    "##rlene": 1,
    "##robe": 1,
    "##ante": 1,
    "crushing": 1,
    "songwriting": 1,
    "contemplated": 1,
    "mosques": 1,
    "##ury": 1,
    "##dice": 1,
    "publicly": 1,
    "##wen": 1,
    "##yx": 1,
    "wool": 1,
    "favorites": 1,
    "##dant": 1,
    "sixteen": 1,
    "##uza": 1,
    "commentator": 1,
    "201": 1,
    "inland": 1,
    "curl": 1,
    "fearful": 1,
    "##tribution": 1,
    "controller": 1,
    "##caster": 1,
    "##rama": 1,
    "nausea": 1,
    "amazement": 1,
    "behaviour": 1,
    "thirds": 1,
    "##cimal": 1,
    "reservation": 1,
    "hurriedly": 1,
    "##\u012b": 1,
    "##\u1ea1": 1,
    "##\u1eaf": 1,
    "##\u1ee7": 1,
    "##\u1ecd": 1,
    "alright": 1,
    "##yman": 1,
    "\u5973": 1,
    "\u5c1a": 1,
    "##mans": 1,
    "priest": 1,
    "01": 1,
    "##oxide": 1,
    "diverted": 1,
    "128": 1,
    "refugee": 1,
    "##yal": 1,
    "zur": 1,
    "uploaded": 1,
    "##dell": 1,
    "loaned": 1,
    "rented": 1,
    "prefecture": 1,
    "clashed": 1,
    "jets": 1,
    "##lows": 1,
    "immortality": 1,
    "scattering": 1,
    "amphibious": 1,
    "blushed": 1,
    "##ania": 1,
    "diffusion": 1,
    "##ises": 1,
    "undisclosed": 1,
    "2002": 1,
    "forehead": 1,
    "shuddered": 1,
    "fibre": 1,
    "implied": 1,
    "lecturer": 1,
    "##uch": 1,
    "dangling": 1,
    "asteroid": 1,
    "censorship": 1,
    "##ample": 1,
    "thud": 1,
    "##nga": 1,
    "jeans": 1,
    "##bbe": 1,
    "songwriters": 1,
    "bullets": 1,
    "##morphic": 1,
    "##riot": 1,
    "##ruba": 1,
    "vomit": 1,
    "flute": 1,
    "aux": 1,
    "brigades": 1,
    "delta": 1,
    "##lected": 1,
    "flexed": 1,
    "enzymes": 1,
    "swimmer": 1,
    "##ghty": 1,
    "glanced": 1,
    "incapable": 1,
    "pretending": 1,
    "ridges": 1,
    "longitude": 1,
    "54": 1,
    "compatible": 1,
    "southernmost": 1,
    "invalid": 1,
    "licking": 1,
    "trance": 1,
    "##uto": 1,
    "parlor": 1,
    "forgot": 1,
    "listed": 1,
    "81": 1,
    "dubious": 1,
    "##runched": 1,
    "descending": 1,
    "\u03b1": 1,
    "publications": 1,
    "politically": 1,
    "risked": 1,
    "##ides": 1,
    "fiddle": 1,
    "##lord": 1,
    "##agon": 1,
    "255": 1,
    "wreckage": 1,
    "circling": 1,
    "skiing": 1,
    "##oar": 1,
    "businessman": 1,
    "shirts": 1,
    "##bir": 1,
    "130": 1,
    "exceptions": 1,
    "##naming": 1,
    "regiment": 1,
    "honour": 1,
    "atoms": 1,
    "230": 1,
    "##gawa": 1,
    "remix": 1,
    "defences": 1,
    "aristocratic": 1,
    "##bish": 1,
    "##truction": 1,
    "insane": 1,
    "152": 1,
    "163": 1,
    "##ssler": 1,
    "possessed": 1,
    "##\u00e8": 1,
    "conceded": 1,
    "##ilated": 1,
    "##oko": 1,
    "\u00b7": 1,
    "appropriately": 1,
    "##rds": 1,
    "drummer": 1,
    "##itors": 1,
    "##pation": 1,
    "##loading": 1,
    "privately": 1,
    "04": 1,
    "mocked": 1,
    "##porated": 1,
    "eponymous": 1,
    "1954": 1,
    "##regation": 1,
    "goalkeeper": 1,
    "##moration": 1,
    "preacher": 1,
    "midfielder": 1,
    "incorrectly": 1,
    "##llum": 1,
    "##took": 1,
    "baggage": 1,
    "##ienne": 1,
    "##national": 1,
    "dominating": 1,
    "##otion": 1,
    "##sby": 1,
    "mute": 1,
    "polite": 1,
    "frogs": 1,
    "remnant": 1,
    "cancel": 1,
    "nobles": 1,
    "boarding": 1,
    "weekday": 1,
    "briefcase": 1,
    "suspects": 1,
    "detector": 1,
    "intensely": 1,
    "stripes": 1,
    "##ait": 1,
    "popularly": 1,
    "overseen": 1,
    "1796": 1,
    "doses": 1,
    "sticking": 1,
    "airport": 1,
    "parole": 1,
    "##iers": 1,
    "citation": 1,
    "chased": 1,
    "##rell": 1,
    "##rada": 1,
    "toy": 1,
    "boys": 1,
    "##sfield": 1,
    "##mington": 1,
    "stroking": 1,
    "tenants": 1,
    "\u0161": 1,
    "##\u0148": 1,
    "\u05e9": 1,
    "##\u05d9": 1,
    "##\u05e9": 1,
    "\u05de": 1,
    "##\u05d5": 1,
    "##\u05d1": 1,
    "##\u05df": 1,
    "taxa": 1,
    "##recht": 1,
    "##leen": 1,
    "dice": 1,
    "disastrous": 1,
    "nostrils": 1,
    "avail": 1,
    "graduating": 1,
    "councillors": 1,
    "succeeds": 1,
    "supplemented": 1,
    "adjoining": 1,
    "battleships": 1,
    "##kis": 1,
    "91": 1,
    "patriotic": 1,
    "##ldon": 1,
    "sheriff": 1,
    "midway": 1,
    "bury": 1,
    "sympathetic": 1,
    "ministers": 1,
    "##actions": 1,
    "\u05d4": 1,
    "##\u05e8": 1,
    "calmly": 1,
    "##tinuum": 1,
    "\u677e": 1,
    "##ulator": 1,
    "##lates": 1,
    "handwriting": 1,
    "titular": 1,
    "laughed": 1,
    "wanna": 1,
    "announces": 1,
    "pertaining": 1,
    "##hawks": 1,
    "##iary": 1,
    "fluttered": 1,
    "porch": 1,
    "tractor": 1,
    "chewing": 1,
    "pulp": 1,
    "correspondence": 1,
    "##ieu": 1,
    "lodge": 1,
    "##tted": 1,
    "##uters": 1,
    "condom": 1,
    "##racker": 1,
    "crashed": 1,
    "##nine": 1,
    "tumbled": 1,
    "\u7701": 1,
    "##weight": 1,
    "edited": 1,
    "##sboro": 1,
    "downed": 1,
    "neighbourhood": 1,
    "whales": 1,
    "okay": 1,
    "##thical": 1,
    "posthumously": 1,
    "1955": 1,
    "1868": 1,
    "outspoken": 1,
    "1875": 1,
    "clinging": 1,
    "downstairs": 1,
    "##chair": 1,
    "violation": 1,
    "longed": 1,
    "pageant": 1,
    "##patrick": 1,
    "agitation": 1,
    "bargaining": 1,
    "publishing": 1,
    "##sser": 1,
    "##zac": 1,
    "inspector": 1,
    "sarcasm": 1,
    "crawling": 1,
    "hymn": 1,
    "choral": 1,
    "bush": 1,
    "presidents": 1,
    "robbery": 1,
    "pardon": 1,
    "babe": 1,
    "smelled": 1,
    "shale": 1,
    "##rise": 1,
    "sediments": 1,
    "mates": 1,
    "vicar": 1,
    "##erina": 1,
    "##mous": 1,
    "genera": 1,
    "missionary": 1,
    "bored": 1,
    "##rome": 1,
    "bunch": 1,
    "##enan": 1,
    "##reus": 1,
    "patents": 1,
    "88": 1,
    "##vila": 1,
    "fraternity": 1,
    "boilers": 1,
    "clinched": 1,
    "##gnate": 1,
    "oath": 1,
    "##dication": 1,
    "knives": 1,
    "falsely": 1,
    "agony": 1,
    "167": 1,
    "subsp": 1,
    "basically": 1,
    "proceeded": 1,
    "camping": 1,
    "obtain": 1,
    "transmissions": 1,
    "1950": 1,
    "1978": 1,
    "##dington": 1,
    "drawings": 1,
    "##hammer": 1,
    "elves": 1,
    "topped": 1,
    "##itt": 1,
    "finishes": 1,
    "resisted": 1,
    "##graphers": 1,
    "mathematician": 1,
    "implies": 1,
    "requested": 1,
    "##tains": 1,
    "##gression": 1,
    "interstate": 1,
    "induction": 1,
    "modelling": 1,
    "temperate": 1,
    "##eman": 1,
    "##graving": 1,
    "numbering": 1,
    "##dgson": 1,
    "##tives": 1,
    "corresponds": 1,
    "##sitive": 1,
    "grimly": 1,
    "\u3046": 1,
    "flirting": 1,
    "shipment": 1,
    "##rsa": 1,
    "physiology": 1,
    "##llow": 1,
    "tray": 1,
    "assignment": 1,
    "piston": 1,
    "shivered": 1,
    "infants": 1,
    "cylindrical": 1,
    "##titis": 1,
    "unopposed": 1,
    "divorced": 1,
    "##\u00fb": 1,
    "##\u00e8s": 1,
    "limestone": 1,
    "butt": 1,
    "##resses": 1,
    "unarmed": 1,
    "##bey": 1,
    "someday": 1,
    "weekdays": 1,
    "##leg": 1,
    "shoe": 1,
    "##uxe": 1,
    "presses": 1,
    "elbows": 1,
    "boulders": 1,
    "##taker": 1,
    "coefficient": 1,
    "##oons": 1,
    "pupils": 1,
    "71": 1,
    "##\u0151": 1,
    "1789": 1,
    "##\u0119": 1,
    "##river": 1,
    "\u0644": 1,
    "##\u062e": 1,
    "popped": 1,
    "extinct": 1,
    "worthless": 1,
    "mined": 1,
    "groundwater": 1,
    "##hane": 1,
    "dripping": 1,
    "panting": 1,
    "nearer": 1,
    "kidding": 1,
    "tugging": 1,
    "silvery": 1,
    "guitars": 1,
    "##ttering": 1,
    "petitioned": 1,
    "circled": 1,
    "alternating": 1,
    "concentrations": 1,
    "##ductory": 1,
    "##tled": 1,
    "blame": 1,
    "disappointed": 1,
    "sympathy": 1,
    "pity": 1,
    "##eley": 1,
    "modelled": 1,
    "agrees": 1,
    "##\u00e2n": 1,
    "hilly": 1,
    "whipping": 1,
    "occupants": 1,
    "treaties": 1,
    "83": 1,
    "compulsory": 1,
    "reportedly": 1,
    "##eper": 1,
    "contractor": 1,
    "2006": 1,
    "faculties": 1,
    "negatively": 1,
    "transferred": 1,
    "ensuing": 1,
    "fighters": 1,
    "##ogram": 1,
    "synthesizer": 1,
    "flown": 1,
    "definitely": 1,
    "##sberg": 1,
    "differ": 1,
    "defeats": 1,
    "##isers": 1,
    "voluntarily": 1,
    "143": 1,
    "hate": 1,
    "##ergic": 1,
    "communion": 1,
    "peaking": 1,
    "##cribed": 1,
    "triangle": 1,
    "##ules": 1,
    "allegedly": 1,
    "medal": 1,
    "constituencies": 1,
    "misleading": 1,
    "sadly": 1,
    "##uter": 1,
    "probability": 1,
    "##hium": 1,
    "terminology": 1,
    "##menclature": 1,
    "relates": 1,
    "martial": 1,
    "##eanut": 1,
    "gorgeous": 1,
    "congressional": 1,
    "modify": 1,
    "##mmal": 1,
    "##stown": 1,
    "wiped": 1,
    "hydroelectric": 1,
    "##mass": 1,
    "170": 1,
    "squads": 1,
    "broadcasters": 1,
    "implements": 1,
    "collaborator": 1,
    "##ully": 1,
    "##ruff": 1,
    "examines": 1,
    "harmonica": 1,
    "##vignon": 1,
    "viruses": 1,
    "##eto": 1,
    "##maging": 1,
    "reptiles": 1,
    "lizard": 1,
    "##hman": 1,
    "periodically": 1,
    "colonies": 1,
    "outpost": 1,
    "##gol": 1,
    "##croft": 1,
    "excavated": 1,
    "shoved": 1,
    "tallest": 1,
    "contestant": 1,
    "sobbing": 1,
    "1884": 1,
    "quarry": 1,
    "categorized": 1,
    "identical": 1,
    "##wald": 1,
    "operas": 1,
    "alternatively": 1,
    "pulpit": 1,
    "dungeon": 1,
    "specifications": 1,
    "##have": 1,
    "##dified": 1,
    "##rily": 1,
    "lick": 1,
    "##llah": 1,
    "tense": 1,
    "##sui": 1,
    "\u2026": 1,
    "aforementioned": 1,
    "moss": 1,
    "holder": 1,
    "infections": 1,
    "cradled": 1,
    "\u5317": 1,
    "##lax": 1,
    "110": 1,
    "\u017e": 1,
    "##ein": 1,
    "freestyle": 1,
    "inning": 1,
    "##rations": 1,
    "commanders": 1,
    "##sher": 1,
    "licked": 1,
    "##eton": 1,
    "flee": 1,
    "beard": 1,
    "##zor": 1,
    "heading": 1,
    "convoys": 1,
    "freshman": 1,
    "manufactures": 1,
    "inactive": 1,
    "##hrill": 1,
    "##uild": 1,
    "sheath": 1,
    "shrug": 1,
    "hopped": 1,
    "##vide": 1,
    "sped": 1,
    "holders": 1,
    "behave": 1,
    "poking": 1,
    "##ody": 1,
    "toss": 1,
    "intervals": 1,
    "##nex": 1,
    "##opus": 1,
    "helmet": 1,
    "##ci\u00f3n": 1,
    "tonight": 1,
    "sampled": 1,
    "##case": 1,
    "granddaughter": 1,
    "billionaire": 1,
    "1912": 1,
    "terrified": 1,
    "##scribed": 1,
    "administrator": 1,
    "spit": 1,
    "poems": 1,
    "weed": 1,
    "removes": 1,
    "shortly": 1,
    "##pical": 1,
    "##ano": 1,
    "##ques": 1,
    "hauled": 1,
    "##utrition": 1,
    "bluff": 1,
    "variance": 1,
    "asylum": 1,
    "deposition": 1,
    "##court": 1,
    "commemorated": 1,
    "176": 1,
    "##ires": 1,
    "mercenaries": 1,
    "##going": 1,
    "pouch": 1,
    "##tata": 1,
    "specials": 1,
    "##vres": 1,
    "##tended": 1,
    "predominant": 1,
    "masonry": 1,
    "awful": 1,
    "lawyer": 1,
    "smells": 1,
    "beers": 1,
    "transgender": 1,
    "affiliated": 1,
    "accreditation": 1,
    "retrieved": 1,
    "wedge": 1,
    "inserted": 1,
    "banjo": 1,
    "relating": 1,
    "##gren": 1,
    "##iding": 1,
    "clubhouse": 1,
    "basin": 1,
    "recognise": 1,
    "##sation": 1,
    "##hetto": 1,
    "theologian": 1,
    "##derman": 1,
    "trimmed": 1,
    "loves": 1,
    "brutally": 1,
    "vase": 1,
    "##roy": 1,
    "owns": 1,
    "provincial": 1,
    "sneaking": 1,
    "suspect": 1,
    "packs": 1,
    "##clusive": 1,
    "necklace": 1,
    "##ational": 1,
    "##opped": 1,
    "wicked": 1,
    "clarified": 1,
    "##named": 1,
    "resisting": 1,
    "punching": 1,
    "motive": 1,
    "illustrations": 1,
    "hid": 1,
    "trophy": 1,
    "abuses": 1,
    "##\u00e9es": 1,
    "1973": 1,
    "##uveau": 1,
    "upstairs": 1,
    "conclude": 1,
    "##pps": 1
}