{
    ",": 90811,
    "the": 87020,
    "of": 55089,
    ".": 54390,
    "a": 50349,
    "and": 35698,
    "to": 28912,
    "in": 26875,
    "s": 18049,
    "'": 17660,
    "*": 16464,
    "##s": 16337,
    "that": 14932,
    "-": 14199,
    "for": 12201,
    "with": 11395,
    "is": 11379,
    "as": 10717,
    "#": 10567,
    "this": 10545,
    "\"": 8140,
    "not": 7785,
    ":": 7606,
    "it": 7416,
    "on": 7369,
    "their": 7192,
    "are": 7163,
    "an": 6878,
    "by": 6692,
    "but": 6593,
    "##ing": 6358,
    "[UNK]": 6009,
    "re": 5857,
    "has": 5450,
    "these": 5295,
    "into": 4963,
    "from": 4643,
    "just": 4602,
    "its": 4413,
    "community": 4248,
    "digital": 3946,
    "202": 3932,
    "where": 3896,
    "was": 3877,
    "at": 3871,
    "our": 3808,
    "[CLS]": 3591,
    "[SEP]": 3591,
    "have": 3588,
    "c": 3544,
    "local": 3312,
    "new": 3295,
    "##r": 3277,
    "##3": 3209,
    "they": 3143,
    "##y": 3107,
    "\u2014": 2982,
    "health": 2939,
    "t": 2890,
    "her": 2881,
    "also": 2865,
    "can": 2856,
    ";": 2846,
    "##ber": 2824,
    "world": 2824,
    "through": 2745,
    "em": 2712,
    "green": 2705,
    "un": 2674,
    "only": 2633,
    "more": 2629,
    "\u2019": 2574,
    "we": 2510,
    "city": 2467,
    "like": 2462,
    "se": 2453,
    "##ed": 2441,
    "life": 2411,
    "be": 2333,
    "heart": 2277,
    "j": 2234,
    "technology": 2209,
    "##em": 2166,
    "##pt": 2144,
    "p": 2076,
    "about": 2074,
    "under": 2064,
    "urban": 2061,
    "no": 2021,
    "e": 1931,
    "one": 1925,
    "test": 1853,
    "future": 1796,
    "ma": 1763,
    "g": 1755,
    "power": 1728,
    "art": 1726,
    "o": 1709,
    "(": 1708,
    "##ament": 1706,
    "##ly": 1704,
    ")": 1701,
    "often": 1682,
    "education": 1652,
    "time": 1632,
    "d": 1600,
    "than": 1592,
    "##er": 1573,
    "##p": 1553,
    "landscape": 1549,
    "or": 1544,
    "global": 1530,
    "f": 1518,
    "his": 1516,
    "each": 1514,
    "every": 1501,
    "how": 1496,
    "learning": 1486,
    "environmental": 1482,
    "been": 1459,
    "foster": 1447,
    "all": 1437,
    "innovation": 1403,
    "en": 1401,
    "between": 1396,
    "now": 1388,
    "##nce": 1383,
    "out": 1359,
    "change": 1359,
    "journey": 1358,
    "become": 1350,
    "b": 1334,
    "##i": 1330,
    "revolution": 1322,
    "human": 1318,
    "era": 1286,
    "sa": 1285,
    "cu": 1285,
    "##si": 1283,
    "who": 1277,
    "##d": 1277,
    "##c": 1276,
    "approach": 1273,
    "##al": 1262,
    "traditional": 1243,
    "well": 1236,
    "across": 1235,
    "when": 1229,
    "##on": 1216,
    "modern": 1211,
    "data": 1211,
    "initiative": 1208,
    "tech": 1206,
    "v": 1196,
    "beacon": 1184,
    "up": 1180,
    "vision": 1180,
    "once": 1176,
    "were": 1165,
    "##es": 1165,
    "##e": 1164,
    "over": 1139,
    "shift": 1138,
    "##ec": 1129,
    "businesses": 1128,
    "##a": 1123,
    "challenges": 1121,
    "age": 1118,
    "##mes": 1113,
    "financial": 1111,
    "##l": 1111,
    "social": 1100,
    "##en": 1095,
    "public": 1095,
    "beyond": 1095,
    "work": 1083,
    "##ling": 1082,
    "##bers": 1080,
    "yet": 1072,
    "cultural": 1071,
    "##ness": 1065,
    "so": 1064,
    "while": 1057,
    "such": 1053,
    "small": 1047,
    "th": 1046,
    "personal": 1045,
    "##m": 1041,
    "impact": 1039,
    "potential": 1034,
    "economic": 1032,
    "nature": 1027,
    "l": 1027,
    "role": 1026,
    "##ct": 1017,
    "communities": 1010,
    "she": 1010,
    "within": 1008,
    "##t": 998,
    "##lie": 997,
    "i": 990,
    "them": 988,
    "ch": 987,
    "##urity": 986,
    "however": 982,
    "innovative": 968,
    "which": 961,
    "educational": 961,
    "being": 959,
    "n": 957,
    "m": 953,
    "students": 952,
    "significant": 948,
    "mental": 948,
    "##linary": 943,
    "physical": 942,
    "growth": 941,
    "##co": 941,
    "energy": 937,
    "sustainable": 937,
    "el": 936,
    "title": 931,
    "co": 929,
    "sustainability": 924,
    "business": 920,
    "realm": 919,
    "merely": 913,
    "con": 909,
    "story": 907,
    "##ary": 906,
    "##n": 898,
    "vibrant": 894,
    "##in": 879,
    "us": 872,
    "##z": 864,
    "understanding": 863,
    "##ve": 859,
    "commitment": 858,
    "critical": 852,
    "##try": 848,
    "need": 848,
    "##vi": 843,
    "sea": 841,
    "both": 840,
    "tapes": 839,
    "spirit": 838,
    "among": 838,
    "transformation": 835,
    "infrastructure": 829,
    "what": 823,
    "##obe": 818,
    "pro": 815,
    "without": 815,
    "ensuring": 811,
    "support": 808,
    "##sco": 807,
    "systems": 802,
    "against": 799,
    "way": 792,
    "towards": 790,
    "high": 789,
    "r": 786,
    "fabric": 780,
    "young": 780,
    "lies": 776,
    "development": 775,
    "inter": 772,
    "##ti": 772,
    "past": 771,
    "na": 767,
    "##ers": 767,
    "transform": 767,
    "shared": 765,
    "di": 764,
    "##ized": 764,
    "ex": 764,
    "stories": 763,
    "unique": 763,
    "sports": 762,
    "##son": 759,
    "bust": 757,
    "very": 753,
    "longer": 752,
    "those": 749,
    "stands": 748,
    "red": 744,
    "reality": 743,
    "technological": 741,
    "face": 739,
    "mi": 736,
    "ha": 735,
    "spaces": 735,
    "de": 734,
    "##res": 733,
    "making": 732,
    "success": 732,
    "movement": 731,
    "environment": 730,
    "experience": 728,
    "##le": 724,
    "could": 716,
    "##ting": 715,
    "access": 712,
    "hope": 711,
    "##cha": 710,
    "most": 707,
    "collective": 706,
    "##ic": 706,
    "pivotal": 700,
    "##ps": 697,
    "school": 693,
    "engagement": 691,
    "br": 690,
    "crucial": 688,
    "will": 686,
    "he": 683,
    "history": 680,
    "day": 680,
    "town": 678,
    "w": 676,
    "rich": 675,
    "##able": 674,
    "long": 673,
    "programs": 671,
    "virtual": 669,
    "emerged": 666,
    "waste": 664,
    "ever": 661,
    "program": 657,
    "market": 651,
    "corners": 649,
    "am": 648,
    "living": 648,
    "culture": 646,
    "security": 646,
    "\u2013": 644,
    "##mber": 643,
    "many": 642,
    "company": 641,
    "policy": 638,
    "mere": 634,
    "ho": 631,
    "strategies": 630,
    "evolving": 630,
    "food": 628,
    "solutions": 627,
    "cities": 625,
    "individuals": 623,
    "narrative": 622,
    "##ine": 622,
    "stage": 622,
    "old": 621,
    "together": 619,
    "management": 619,
    "real": 619,
    "system": 619,
    "##less": 617,
    "skills": 617,
    "smart": 616,
    "##ity": 615,
    "##urt": 613,
    "ve": 608,
    "resources": 607,
    "today": 607,
    "industry": 606,
    "##te": 603,
    "complex": 603,
    "importance": 602,
    "h": 600,
    "knowledge": 594,
    "go": 594,
    "tale": 591,
    "##ef": 591,
    "had": 586,
    "water": 585,
    "##ful": 584,
    "step": 584,
    "flavor": 584,
    "##ce": 583,
    "around": 582,
    "practices": 580,
    "##ative": 578,
    "ancient": 577,
    "tales": 573,
    "me": 573,
    "first": 572,
    "designed": 571,
    "initiatives": 569,
    "platforms": 569,
    "profound": 564,
    "landscapes": 564,
    "%": 562,
    "isn": 562,
    "##om": 562,
    "##el": 561,
    "symphony": 561,
    "ad": 560,
    "minds": 560,
    "heritage": 554,
    "challenge": 553,
    "##an": 553,
    "essence": 553,
    "##ive": 551,
    "even": 551,
    "earth": 550,
    "dance": 548,
    "year": 547,
    "leading": 547,
    "##4": 547,
    "path": 546,
    "needs": 545,
    "project": 542,
    "amidst": 541,
    "training": 540,
    "set": 539,
    "air": 537,
    "##g": 537,
    "would": 535,
    "action": 534,
    "call": 534,
    "adapt": 532,
    "own": 532,
    "##ble": 532,
    "strategic": 531,
    "met": 529,
    "services": 527,
    "mind": 523,
    "team": 522,
    "##gating": 521,
    "there": 521,
    "turning": 520,
    "found": 519,
    "15": 518,
    "essential": 517,
    "driven": 512,
    "since": 511,
    "creating": 511,
    "sense": 510,
    "end": 509,
    "space": 508,
    "offering": 508,
    "lives": 508,
    "employees": 507,
    "##o": 504,
    "became": 504,
    "tools": 503,
    "experiences": 503,
    "act": 502,
    "##izing": 502,
    "behind": 501,
    "al": 500,
    "##oh": 499,
    "workshops": 499,
    "known": 495,
    "##sp": 495,
    "increasingly": 495,
    "##field": 495,
    "other": 491,
    "##qui": 490,
    "diverse": 488,
    "people": 487,
    "##sha": 486,
    "key": 485,
    "ca": 485,
    "strategy": 484,
    "##cend": 484,
    "part": 484,
    "healthcare": 482,
    "home": 482,
    "center": 482,
    "z": 481,
    "online": 481,
    "game": 481,
    "forefront": 480,
    "vital": 479,
    "response": 479,
    "themselves": 477,
    "##ate": 476,
    "##tone": 473,
    "residents": 472,
    "edge": 472,
    "recognizing": 471,
    "transforming": 471,
    "media": 470,
    "trans": 469,
    "k": 469,
    "del": 466,
    "q": 465,
    "season": 463,
    "down": 463,
    "integration": 462,
    "far": 460,
    "embrace": 460,
    "you": 459,
    "start": 457,
    "natural": 456,
    "quest": 456,
    "forward": 456,
    "tradition": 453,
    "##ily": 452,
    "another": 452,
    "##x": 452,
    "##uring": 451,
    "efforts": 450,
    "per": 449,
    "remote": 448,
    "society": 448,
    "threats": 448,
    "youth": 448,
    "##us": 447,
    "im": 447,
    "play": 446,
    "inn": 445,
    "fitness": 445,
    "akin": 444,
    "safety": 444,
    "##rt": 443,
    "da": 443,
    "##bracing": 443,
    "internet": 442,
    "light": 441,
    "es": 440,
    "whispers": 440,
    "##ous": 439,
    "event": 439,
    "serve": 438,
    "enhance": 436,
    "##or": 435,
    "##ability": 434,
    "led": 433,
    "find": 433,
    "multi": 432,
    "intricate": 432,
    "clear": 431,
    "deep": 430,
    "##line": 430,
    "progress": 430,
    "your": 429,
    "learn": 429,
    "tan": 429,
    "##hip": 428,
    "benefits": 428,
    "##me": 427,
    "robust": 427,
    "must": 426,
    "place": 426,
    "schools": 426,
    "sector": 425,
    "efficiency": 423,
    "before": 421,
    "te": 421,
    "seen": 420,
    "daily": 420,
    "climate": 419,
    "##de": 419,
    "##ment": 419,
    "barriers": 419,
    "family": 419,
    "blend": 418,
    "process": 418,
    "bridge": 417,
    "whose": 417,
    "##ization": 414,
    "care": 414,
    "dynamic": 413,
    "##ating": 412,
    "harness": 412,
    "science": 412,
    "[": 410,
    "weaving": 408,
    "balance": 408,
    "]": 407,
    "create": 407,
    "##ter": 406,
    "much": 406,
    "groundbreaking": 405,
    "events": 405,
    "##cal": 404,
    "##ging": 404,
    "sun": 404,
    "growing": 404,
    "any": 403,
    "##nt": 403,
    "hand": 403,
    "generation": 401,
    "##ards": 401,
    "1": 401,
    "##re": 401,
    "5": 399,
    "stand": 398,
    "unprecedented": 397,
    "recent": 397,
    "diversity": 396,
    "service": 396,
    "workforce": 395,
    "creativity": 395,
    "globe": 394,
    "imp": 394,
    "enterprises": 394,
    "##wood": 394,
    "ne": 393,
    "collaboration": 393,
    "vast": 392,
    "move": 391,
    "chef": 391,
    "during": 390,
    "##ize": 389,
    "##rah": 388,
    "innovations": 388,
    "comprehensive": 388,
    "wisdom": 388,
    "reminder": 388,
    "professional": 387,
    "rise": 386,
    "##ria": 385,
    "safe": 385,
    "customer": 385,
    "might": 384,
    "particularly": 384,
    "economy": 384,
    "technologies": 383,
    "ecosystem": 381,
    "com": 381,
    "##rs": 378,
    "recycling": 377,
    "##ry": 377,
    "my": 377,
    "alike": 376,
    "harm": 376,
    "core": 376,
    "echoes": 376,
    "corporate": 376,
    "information": 376,
    "quality": 376,
    "commerce": 376,
    "connection": 376,
    "two": 375,
    "gap": 374,
    "ill": 374,
    "network": 373,
    "advancement": 373,
    "do": 372,
    "##print": 372,
    "ensure": 372,
    "ins": 372,
    "began": 371,
    "international": 371,
    "individual": 371,
    "field": 371,
    "spring": 370,
    "offer": 370,
    "generations": 370,
    "marked": 370,
    "park": 370,
    "wave": 369,
    "##ion": 369,
    "form": 369,
    "dawn": 368,
    "bold": 368,
    "communication": 368,
    "##ring": 368,
    "entrepreneurs": 367,
    "##ping": 367,
    "##ies": 367,
    "hub": 367,
    "quantum": 367,
    "navigate": 365,
    "taken": 364,
    "##po": 364,
    "itself": 363,
    "becomes": 362,
    "sky": 361,
    "different": 361,
    "##rive": 361,
    "building": 361,
    "back": 360,
    "enhancing": 359,
    "##b": 359,
    "concept": 358,
    "take": 357,
    "make": 357,
    "##ning": 356,
    "lo": 356,
    "ability": 356,
    "solar": 356,
    "ensures": 354,
    "streets": 353,
    "issues": 353,
    "music": 352,
    "su": 351,
    "tool": 349,
    "evolution": 348,
    "##lessly": 348,
    "##est": 348,
    "##ma": 348,
    "silent": 347,
    "pioneering": 347,
    "##ova": 347,
    "mission": 346,
    "##ation": 345,
    "opportunities": 345,
    "##id": 342,
    "left": 341,
    "boundaries": 340,
    "\u201c": 339,
    "##ivity": 339,
    "providing": 339,
    "here": 338,
    "##umi": 338,
    "turn": 338,
    "transformed": 338,
    "block": 337,
    "et": 337,
    "serves": 337,
    "institutions": 336,
    "##guard": 335,
    "##ates": 335,
    "narratives": 335,
    "cutting": 335,
    "grid": 335,
    "##tech": 334,
    "passion": 334,
    "##ru": 334,
    "##ville": 334,
    "##pe": 333,
    "policies": 333,
    "##h": 333,
    "storm": 333,
    "hands": 333,
    "crisis": 332,
    "##ated": 331,
    "voice": 331,
    "simple": 331,
    "##v": 330,
    "##li": 330,
    "land": 330,
    "leap": 330,
    "networks": 329,
    "river": 328,
    "##rre": 328,
    "##ssa": 327,
    "##ur": 327,
    "plan": 326,
    "?": 325,
    "blue": 325,
    "stew": 324,
    "##ted": 323,
    "come": 322,
    "symbol": 321,
    "student": 321,
    "##ac": 321,
    "conservation": 320,
    "craft": 320,
    "societal": 320,
    "fresh": 320,
    "##gible": 320,
    "##f": 319,
    "3": 319,
    "force": 319,
    "\u201d": 318,
    "stark": 318,
    "nutrition": 317,
    "line": 317,
    "made": 317,
    "performance": 317,
    "##oni": 316,
    "nestled": 316,
    "focus": 315,
    "belief": 315,
    "imagine": 314,
    "measures": 314,
    "council": 314,
    "athletes": 314,
    "_": 313,
    "early": 313,
    "harmony": 312,
    "jam": 312,
    "launched": 311,
    "children": 310,
    "ground": 309,
    "responsibility": 309,
    "provide": 309,
    "quiet": 308,
    "embarked": 308,
    "##listic": 308,
    "metro": 308,
    "took": 307,
    "lead": 307,
    "trend": 307,
    "years": 307,
    "festival": 306,
    "unity": 306,
    "citizens": 306,
    "friendly": 306,
    "##rich": 306,
    "woven": 305,
    "dreams": 305,
    "battle": 304,
    "##lus": 304,
    "##nai": 304,
    "transportation": 304,
    "##ls": 303,
    "funding": 303,
    "projects": 302,
    "delicate": 302,
    "##ch": 300,
    "haven": 300,
    "powerful": 299,
    "if": 299,
    "governance": 299,
    "accessible": 299,
    "contemporary": 298,
    "##st": 298,
    "##ure": 297,
    "horizon": 297,
    "significantly": 296,
    "moment": 296,
    "##lar": 295,
    "pat": 295,
    "##ial": 295,
    "post": 294,
    "##ple": 294,
    "app": 294,
    "intelligence": 294,
    "planning": 293,
    "operations": 292,
    "rather": 292,
    "##ner": 292,
    "ambitious": 292,
    "disruption": 291,
    "according": 291,
    "leadership": 291,
    "canvas": 290,
    "wasn": 290,
    "##ran": 290,
    "medium": 289,
    "##tag": 289,
    "##ar": 289,
    "concerns": 289,
    "various": 288,
    "mayor": 288,
    "surge": 287,
    "soul": 287,
    "seeking": 286,
    "##lo": 286,
    "political": 285,
    "le": 285,
    "survival": 285,
    "based": 285,
    "awareness": 285,
    "##tes": 285,
    "op": 285,
    "##wes": 285,
    "##ua": 284,
    "insights": 284,
    "companies": 284,
    "turned": 283,
    "dedicated": 283,
    "remarkable": 283,
    "never": 282,
    "upon": 282,
    "aimed": 282,
    "rip": 281,
    "##con": 281,
    "too": 281,
    "cap": 280,
    "##fold": 280,
    "level": 280,
    "##zing": 280,
    "preservation": 280,
    "pan": 279,
    "##ia": 279,
    "job": 279,
    "##aging": 278,
    "##ver": 278,
    "historical": 277,
    "allowing": 277,
    "##active": 277,
    "series": 277,
    "off": 277,
    "##nson": 276,
    "away": 276,
    "threads": 275,
    "car": 275,
    "framework": 275,
    "si": 275,
    "competitive": 275,
    "##k": 274,
    "century": 274,
    "use": 274,
    "platform": 274,
    "ecological": 274,
    "##ul": 274,
    "participants": 274,
    "national": 273,
    "traditions": 273,
    "shadows": 273,
    "##th": 272,
    "consumer": 272,
    "transit": 272,
    "foot": 272,
    "tomorrow": 272,
    "##red": 271,
    "##ust": 270,
    "##rb": 270,
    "demand": 270,
    "love": 270,
    "methods": 270,
    "ing": 269,
    "##connected": 268,
    "right": 268,
    "paradigm": 268,
    "techniques": 268,
    "##rap": 267,
    "integrating": 267,
    "secure": 267,
    "promise": 267,
    "cult": 267,
    "neighborhood": 267,
    "classroom": 267,
    "language": 266,
    "literacy": 266,
    "la": 266,
    "present": 266,
    "fair": 266,
    "after": 266,
    "nation": 265,
    "times": 265,
    "inclusive": 265,
    "concrete": 265,
    "##ven": 263,
    "##mu": 263,
    "employee": 263,
    "##eavor": 262,
    "##mers": 262,
    "##ier": 262,
    "##ci": 261,
    "areas": 261,
    "brought": 261,
    "travel": 261,
    "##tal": 261,
    "leaders": 260,
    "addressing": 260,
    "artists": 260,
    "heroes": 260,
    "further": 260,
    "##wave": 260,
    "advanced": 260,
    "shaping": 259,
    "voices": 259,
    "point": 259,
    "thinking": 259,
    "pre": 258,
    "becoming": 258,
    "hearts": 256,
    "weather": 256,
    "offers": 256,
    "private": 256,
    "##im": 256,
    "self": 256,
    "##od": 256,
    "address": 256,
    "partnerships": 256,
    "spear": 256,
    "emotional": 256,
    "effort": 255,
    "renowned": 255,
    "##gi": 254,
    "setting": 254,
    "engaging": 253,
    "decision": 253,
    "demonstrating": 253,
    "cross": 252,
    "mill": 252,
    "##fu": 252,
    "open": 252,
    "##bo": 252,
    "cultures": 252,
    "dream": 251,
    "##out": 251,
    "activities": 251,
    "tide": 249,
    "deeply": 249,
    "trust": 249,
    "planet": 249,
    "united": 248,
    "educators": 248,
    "##eri": 247,
    "necessity": 247,
    "identity": 246,
    "interactive": 245,
    "grass": 245,
    "##uan": 245,
    "body": 245,
    "scene": 244,
    "reach": 244,
    "precision": 244,
    "artistic": 244,
    "respect": 244,
    "para": 244,
    "effective": 244,
    "stress": 244,
    "grand": 243,
    "echoing": 243,
    "risk": 242,
    "term": 242,
    "##eric": 242,
    "changing": 242,
    "##iti": 242,
    "##ot": 241,
    "ta": 241,
    "##ng": 241,
    "active": 241,
    "##ri": 240,
    "supply": 240,
    "##ie": 240,
    "waters": 240,
    "doesn": 240,
    "##ra": 240,
    "worldwide": 239,
    "relentless": 239,
    "##as": 239,
    "value": 239,
    "better": 239,
    "creative": 239,
    "economies": 239,
    "sleep": 238,
    "##powering": 238,
    "##fo": 238,
    "doors": 238,
    "true": 237,
    "##ibility": 237,
    "values": 237,
    "##power": 237,
    "demands": 237,
    "cry": 237,
    "fast": 236,
    "mentor": 236,
    "phenomenon": 236,
    "\uff0c": 236,
    "campaign": 235,
    "web": 235,
    "tailored": 235,
    "walls": 235,
    "common": 235,
    "says": 235,
    "emergency": 235,
    "threat": 234,
    "##age": 234,
    "##cap": 234,
    "##cy": 234,
    "cost": 234,
    "may": 234,
    "##ports": 233,
    "influence": 233,
    "taking": 233,
    "##se": 233,
    "instead": 233,
    "advocate": 233,
    "should": 233,
    "effect": 233,
    "##aries": 232,
    "presence": 232,
    "example": 232,
    "region": 231,
    "echo": 231,
    "##ane": 231,
    "state": 231,
    "seeds": 230,
    "activity": 230,
    "sparked": 230,
    "chain": 230,
    "show": 230,
    "##lities": 230,
    "renewable": 229,
    "lever": 229,
    "audience": 229,
    "ways": 229,
    "##ist": 229,
    "immediate": 229,
    "catalyst": 229,
    "stream": 228,
    "##ita": 228,
    "see": 228,
    "academic": 228,
    "##ke": 227,
    "great": 227,
    "less": 227,
    "##ns": 226,
    "unexpected": 226,
    "unseen": 226,
    "career": 226,
    "##oi": 226,
    "investment": 226,
    "deeper": 225,
    "faced": 225,
    "significance": 225,
    "##ities": 225,
    "inspiring": 224,
    "engage": 224,
    "##ue": 224,
    "chaos": 223,
    "share": 223,
    "environments": 223,
    "wildlife": 223,
    "classrooms": 223,
    "reducing": 222,
    "cat": 222,
    "folklore": 222,
    "thriving": 222,
    "rapidly": 222,
    "short": 222,
    "gas": 222,
    "collaborative": 221,
    "##roots": 221,
    "practical": 221,
    "strength": 221,
    "creation": 221,
    "##polis": 221,
    "dynamics": 221,
    "##ent": 220,
    "foundation": 220,
    "aims": 220,
    "predict": 220,
    "##up": 220,
    "some": 219,
    "cannot": 219,
    "centers": 219,
    "talent": 219,
    "research": 219,
    "embraced": 219,
    "##ne": 219,
    "sessions": 219,
    "night": 218,
    "picture": 218,
    "works": 218,
    "##lity": 218,
    "fusion": 217,
    "2": 217,
    "government": 217,
    "spotlight": 217,
    "retail": 217,
    "##eo": 216,
    "transparency": 216,
    "products": 216,
    "##loom": 215,
    "##nza": 215,
    "backbone": 215,
    "scale": 215,
    "next": 215,
    "days": 215,
    "experts": 214,
    "##su": 214,
    "humanity": 214,
    "##abi": 214,
    "connect": 214,
    "fact": 213,
    "u": 213,
    "roots": 213,
    "##rig": 213,
    "skill": 212,
    "traffic": 212,
    "##ious": 212,
    "man": 212,
    "model": 212,
    "pu": 211,
    "charge": 211,
    "let": 211,
    "lifestyle": 211,
    "truly": 211,
    "bring": 211,
    "touch": 211,
    "soil": 210,
    "comes": 210,
    "attention": 210,
    "diet": 210,
    "ingredients": 210,
    "stepping": 209,
    "curriculum": 209,
    "figure": 209,
    "connectivity": 209,
    "served": 209,
    "##na": 209,
    "cooking": 209,
    "opportunity": 208,
    "levels": 208,
    "theater": 208,
    "issue": 208,
    "##cs": 208,
    "##ton": 208,
    "goal": 208,
    "artificial": 208,
    "professionals": 207,
    "milestone": 207,
    "autumn": 207,
    "explains": 207,
    "##ni": 206,
    "customers": 206,
    "##sca": 206,
    "street": 206,
    "conventional": 206,
    "introduced": 206,
    "necessary": 206,
    "##mic": 205,
    "dialogue": 205,
    "consumers": 205,
    "divide": 205,
    "passionate": 205,
    "patterns": 205,
    "costs": 205,
    "pollution": 204,
    "##is": 204,
    "code": 204,
    "ethical": 204,
    "understand": 204,
    "##ulously": 204,
    "reflecting": 204,
    "##rc": 204,
    "##town": 203,
    "shadow": 203,
    "##lant": 203,
    "&": 203,
    "maintaining": 203,
    "guiding": 203,
    "def": 203,
    "eyes": 202,
    "joy": 202,
    "##ism": 202,
    "participation": 202,
    "hall": 201,
    "triumph": 201,
    "prior": 201,
    "und": 201,
    "materials": 201,
    "meets": 201,
    "##ta": 200,
    "ecosystems": 200,
    "ed": 200,
    "witness": 200,
    "##vat": 199,
    "##istic": 199,
    "goes": 199,
    "preserving": 199,
    "dedication": 199,
    "kitchen": 199,
    "devices": 199,
    "##ow": 198,
    "bio": 198,
    "leaving": 198,
    "breathing": 198,
    "beneath": 198,
    "healing": 198,
    "##ian": 198,
    "showcase": 198,
    "anal": 198,
    "marketing": 197,
    "side": 197,
    "live": 197,
    "##ave": 197,
    "##light": 197,
    "content": 196,
    "micro": 196,
    "##com": 196,
    "neighborhoods": 196,
    "resource": 196,
    "guardian": 195,
    "highlighting": 195,
    "##ytic": 195,
    "##ica": 194,
    "defense": 194,
    "conscious": 194,
    "philosophy": 194,
    "attacks": 194,
    "eye": 194,
    "expertise": 194,
    "##ren": 194,
    "single": 193,
    "ka": 193,
    "##ign": 193,
    "sent": 193,
    "software": 193,
    "lines": 193,
    "integrate": 193,
    "gardens": 193,
    "clean": 192,
    "rooted": 192,
    "revolutionary": 192,
    "evolved": 192,
    "few": 192,
    "case": 192,
    "markets": 192,
    "states": 192,
    "fields": 192,
    "dish": 192,
    "beauty": 192,
    "##ups": 192,
    "champion": 191,
    "means": 191,
    "promises": 191,
    "##rri": 191,
    "does": 191,
    "##pling": 190,
    "countless": 190,
    "breaking": 190,
    "cuisine": 190,
    "increase": 190,
    "highlighted": 190,
    "lessons": 189,
    "##di": 189,
    "emerges": 189,
    "artist": 189,
    "practice": 189,
    "##ro": 189,
    "harvest": 189,
    "design": 189,
    "takes": 188,
    "emerging": 188,
    "##sul": 188,
    "##ining": 188,
    "teams": 188,
    "corridors": 188,
    "rod": 188,
    "storytelling": 187,
    "##man": 187,
    "arts": 187,
    "enthusiasts": 187,
    "##headed": 187,
    "algorithms": 187,
    "##rda": 187,
    "born": 186,
    "toward": 186,
    "boost": 186,
    "head": 186,
    "orchestra": 186,
    "playing": 186,
    "healthy": 186,
    "medical": 185,
    "ideas": 185,
    "##led": 185,
    "black": 185,
    "members": 185,
    "communal": 185,
    "challenging": 185,
    "##ages": 184,
    "##sse": 184,
    "celebration": 184,
    "expert": 184,
    "##pen": 184,
    "protection": 184,
    "##lient": 184,
    "method": 184,
    "##work": 184,
    "##fies": 183,
    "chapter": 183,
    "teaching": 183,
    "vivid": 183,
    "meet": 183,
    "recovery": 183,
    "others": 183,
    "##pathy": 183,
    "good": 183,
    "cloud": 183,
    "##mith": 182,
    "##gering": 182,
    "urgent": 182,
    "due": 182,
    "trail": 181,
    "large": 181,
    "transition": 181,
    "words": 181,
    "expression": 181,
    "industries": 181,
    "##ph": 181,
    "fort": 181,
    "##ismic": 181,
    "corner": 180,
    "echoed": 180,
    "thread": 180,
    "##nc": 180,
    "##sh": 180,
    "##ship": 180,
    "##val": 180,
    "using": 180,
    "##ide": 180,
    "birth": 179,
    "##phi": 179,
    "changes": 179,
    "pulse": 179,
    "##zed": 179,
    "study": 179,
    "##vid": 178,
    "ng": 178,
    "introduction": 178,
    "needed": 178,
    "civic": 178,
    "cart": 178,
    "parks": 178,
    "free": 178,
    "mit": 178,
    "##gni": 178,
    "##ck": 178,
    "##rve": 178,
    "table": 178,
    "saw": 177,
    "carbon": 177,
    "10": 177,
    "heights": 177,
    "entrepreneur": 177,
    "plans": 177,
    "launch": 177,
    "##wi": 177,
    "##fulness": 177,
    "##uri": 177,
    "especially": 176,
    "conditions": 176,
    "confined": 176,
    "concern": 176,
    "meanwhile": 176,
    "contribute": 176,
    "hold": 176,
    "group": 175,
    "##dis": 175,
    "##ze": 175,
    "competition": 175,
    "nations": 175,
    "late": 175,
    "recognized": 175,
    "breach": 175,
    "##et": 175,
    "productivity": 175,
    "##lines": 175,
    "overlooked": 175,
    "broader": 175,
    "course": 175,
    "##gnant": 175,
    "enhanced": 175,
    "proving": 175,
    "workers": 175,
    "master": 174,
    "maple": 174,
    "##no": 174,
    "efficient": 174,
    "numbers": 174,
    "rapid": 174,
    "champions": 174,
    "shares": 174,
    "dishes": 174,
    "jungle": 174,
    "mid": 173,
    "frontier": 173,
    "plays": 173,
    "expansion": 173,
    "full": 173,
    "budget": 173,
    "governments": 172,
    "breathe": 172,
    "##lify": 172,
    "remains": 172,
    "trends": 172,
    "##mount": 172,
    "##uity": 172,
    "promoting": 172,
    "##rave": 172,
    "au": 172,
    "purpose": 171,
    "##tic": 171,
    "myths": 171,
    "heartbeat": 171,
    "account": 171,
    "inspired": 171,
    "computing": 171,
    "fundamental": 170,
    "##ons": 170,
    "##land": 169,
    "##va": 169,
    "arena": 169,
    "dual": 169,
    "unveiled": 169,
    "unlike": 169,
    "aim": 169,
    "solution": 169,
    "machine": 169,
    "wind": 168,
    "held": 168,
    "non": 168,
    "anti": 168,
    "driving": 168,
    "larger": 168,
    "##ex": 167,
    "vehicles": 167,
    "whisper": 167,
    "##tra": 167,
    "##anu": 167,
    "employment": 167,
    "working": 167,
    "hours": 167,
    "finding": 167,
    "##shed": 167,
    "scientific": 166,
    "##uy": 166,
    "##les": 166,
    "same": 166,
    "giants": 166,
    "alongside": 166,
    "best": 166,
    "extends": 166,
    "taste": 166,
    "explore": 166,
    "##hing": 166,
    "teacher": 166,
    "recipes": 166,
    "industrial": 165,
    "##body": 165,
    "ale": 165,
    "golden": 165,
    "##omi": 165,
    "partnership": 164,
    "pressing": 164,
    "instance": 164,
    "enter": 164,
    "alone": 164,
    "exercise": 164,
    "consciousness": 164,
    "wake": 163,
    "fall": 163,
    "##mor": 163,
    "equipped": 163,
    "men": 163,
    "idea": 163,
    "construction": 163,
    "incident": 162,
    "standards": 162,
    "biodiversity": 162,
    "##nal": 162,
    "imagination": 162,
    "##aves": 162,
    "##table": 162,
    "##powerment": 162,
    "##int": 162,
    "enabling": 162,
    "store": 162,
    "regulatory": 161,
    "sharing": 161,
    "hard": 161,
    "elements": 161,
    "species": 161,
    "road": 161,
    "help": 161,
    "compelling": 161,
    "21st": 161,
    "sophisticated": 161,
    "lush": 161,
    "front": 160,
    "magic": 160,
    "##ols": 160,
    "##unda": 160,
    "##ess": 160,
    "rhythm": 160,
    "##ap": 160,
    "wa": 160,
    "festivals": 159,
    "prevent": 159,
    "east": 159,
    "labor": 159,
    "##cess": 159,
    "processes": 159,
    "cycle": 159,
    "breath": 159,
    "brings": 159,
    "feel": 158,
    "shape": 158,
    "urgency": 158,
    "##tri": 158,
    "goals": 158,
    "sets": 158,
    "painting": 158,
    "##il": 157,
    "stood": 157,
    "##ge": 157,
    "farming": 157,
    "guidance": 157,
    "spark": 157,
    "##him": 157,
    "cater": 157,
    "big": 157,
    "##han": 157,
    "privacy": 156,
    "did": 156,
    "document": 156,
    "yo": 156,
    "crafts": 156,
    "universal": 156,
    "something": 156,
    "requires": 156,
    "stepped": 156,
    "dark": 156,
    "##his": 156,
    "##rating": 155,
    "##versity": 155,
    "##ify": 155,
    "central": 155,
    "effects": 155,
    "van": 155,
    "##lossom": 155,
    "##to": 155,
    "nothing": 155,
    "name": 155,
    "specific": 155,
    "relationship": 155,
    "product": 155,
    "models": 155,
    "##hr": 154,
    "risks": 154,
    "capital": 154,
    "ni": 154,
    "agriculture": 154,
    "##pect": 154,
    "##rene": 154,
    "##oma": 154,
    "always": 154,
    "truth": 154,
    "surface": 154,
    "heat": 154,
    "struggle": 154,
    "organizations": 154,
    "##cible": 154,
    "wild": 153,
    "une": 153,
    "##eni": 153,
    "centuries": 153,
    "players": 153,
    "connected": 153,
    "families": 153,
    "march": 153,
    "paths": 153,
    "##ving": 153,
    "came": 153,
    "highlights": 153,
    "ghost": 152,
    "##face": 152,
    "12": 152,
    "major": 152,
    "##ace": 152,
    "##um": 152,
    "article": 152,
    "fuel": 152,
    "combat": 152,
    "##op": 151,
    "meta": 151,
    "morning": 151,
    "determination": 151,
    "everyone": 151,
    "recognition": 151,
    "figures": 151,
    "##oning": 151,
    "despite": 151,
    "speed": 151,
    "fueled": 151,
    "blending": 151,
    "##w": 151,
    "senior": 151,
    "##xi": 150,
    "overs": 150,
    "emphasizes": 150,
    "##uous": 150,
    "finance": 150,
    "opened": 150,
    "parents": 150,
    "adult": 150,
    "interest": 150,
    "cognitive": 150,
    "disrupt": 150,
    "cast": 149,
    "##ming": 149,
    "direct": 149,
    "component": 149,
    "whether": 149,
    "##sun": 149,
    "##rk": 149,
    "##pable": 149,
    "##ves": 149,
    "demo": 149,
    "existence": 148,
    "niche": 148,
    "##ulous": 148,
    "wear": 148,
    "flow": 148,
    "##oc": 148,
    "prepared": 148,
    "sectors": 148,
    "visual": 147,
    "homes": 147,
    "buzz": 147,
    "mobility": 147,
    "seasonal": 147,
    "##erson": 147,
    "##tat": 147,
    "keep": 147,
    "didn": 147,
    "array": 147,
    "production": 147,
    "mobile": 147,
    "race": 147,
    "emerge": 147,
    "seniors": 147,
    "perspective": 146,
    "##erative": 146,
    "bridges": 146,
    "##tu": 146,
    "regular": 146,
    "##rim": 146,
    "adaptation": 146,
    "connecting": 146,
    "crafted": 146,
    "integral": 146,
    "aspect": 146,
    "effectively": 146,
    "##vy": 146,
    "amateur": 146,
    "roles": 146,
    "venture": 146,
    "##cas": 145,
    "everyday": 145,
    "piece": 145,
    "involvement": 145,
    "##gin": 145,
    "strong": 145,
    "capabilities": 145,
    "##ivating": 145,
    "aren": 145,
    "operational": 145,
    "swiftly": 145,
    "lost": 144,
    "reduce": 144,
    "fl": 144,
    "integrated": 144,
    "adoption": 144,
    "steps": 144,
    "legacy": 144,
    "stone": 144,
    "actively": 144,
    "##ib": 144,
    "er": 144,
    "pioneers": 143,
    "bright": 143,
    "filled": 143,
    "produce": 143,
    "##sable": 143,
    "monumental": 143,
    "halls": 142,
    "fashion": 142,
    "##ts": 142,
    "##ima": 142,
    "wide": 142,
    "##bark": 142,
    "emphasizing": 142,
    "reflects": 142,
    "##dies": 142,
    "gentle": 142,
    "aging": 142,
    "party": 141,
    "choice": 141,
    "including": 141,
    "trade": 141,
    "##ues": 141,
    "##ding": 141,
    "workplace": 141,
    "don": 141,
    "towns": 141,
    "##aly": 140,
    "structures": 140,
    "##inger": 140,
    "fi": 140,
    "indigenous": 140,
    "##bla": 140,
    "fiscal": 140,
    "lights": 140,
    "felt": 140,
    "increased": 140,
    "##crat": 140,
    "weight": 139,
    "integrity": 139,
    "##ui": 139,
    "revealed": 139,
    "alliance": 139,
    "electric": 139,
    "architectural": 139,
    "delight": 139,
    "##go": 139,
    "control": 139,
    "sub": 139,
    "##ties": 139,
    "powered": 139,
    "analysis": 139,
    "20": 139,
    "farm": 139,
    "sound": 138,
    "euro": 138,
    "##mizing": 138,
    "pet": 138,
    "sacred": 138,
    "##ally": 138,
    "problem": 138,
    "transactions": 138,
    "serving": 138,
    "fire": 138,
    "allows": 138,
    "shining": 137,
    "remain": 137,
    "darkness": 137,
    "war": 137,
    "shield": 137,
    "pursuit": 137,
    "legends": 137,
    "restoration": 137,
    "luxury": 137,
    "notes": 137,
    "evolve": 137,
    "begins": 137,
    "##ala": 137,
    "regional": 137,
    "trees": 136,
    "##ir": 136,
    "shop": 136,
    "crisp": 136,
    "still": 136,
    "witnessed": 136,
    "millions": 136,
    "##ance": 136,
    "bonds": 136,
    "##cu": 136,
    "##ym": 136,
    "stars": 136,
    "emphasized": 136,
    "familiar": 136,
    "exchange": 135,
    "forms": 135,
    "##cc": 135,
    "represents": 135,
    "provides": 135,
    "mon": 135,
    "prime": 135,
    "matter": 135,
    "adventure": 135,
    "directly": 135,
    "##ez": 134,
    "##ff": 134,
    "office": 134,
    "exploration": 134,
    "convenience": 134,
    "comfort": 134,
    "tackle": 134,
    "holds": 133,
    "##rgen": 133,
    "maintain": 133,
    "##tion": 133,
    "##par": 133,
    "marking": 133,
    "therapy": 133,
    "reaching": 133,
    "##tors": 133,
    "$": 133,
    "eager": 133,
    "rural": 133,
    "##ty": 132,
    "##view": 132,
    "preserve": 132,
    "helm": 132,
    "mark": 132,
    "##lt": 132,
    "##ad": 132,
    "##here": 132,
    "rivers": 132,
    "hum": 132,
    "##der": 132,
    "##unting": 132,
    "promising": 132,
    "##u": 131,
    "bound": 131,
    "coding": 131,
    "tail": 131,
    "prosperity": 131,
    "shifts": 131,
    "##du": 131,
    "focusing": 131,
    "outdoor": 131,
    "##over": 131,
    "connections": 130,
    "celebrated": 130,
    "studies": 130,
    "experienced": 130,
    "ocean": 130,
    "##ivate": 130,
    "hero": 130,
    "district": 130,
    "pace": 130,
    "##fi": 129,
    "established": 129,
    "equally": 129,
    "users": 129,
    "##chan": 129,
    "ben": 129,
    "source": 129,
    "borders": 129,
    "4": 129,
    "##eva": 129,
    "keen": 129,
    "simply": 129,
    "groups": 128,
    "##dy": 128,
    "encouraging": 128,
    "pot": 128,
    "country": 128,
    "##ju": 128,
    "task": 128,
    "novel": 128,
    "low": 128,
    "##nate": 128,
    "maintenance": 128,
    "##ut": 128,
    "workshop": 128,
    "##os": 128,
    "perfect": 128,
    "outcomes": 128,
    "unlock": 128,
    "campaigns": 127,
    "seek": 127,
    "fore": 127,
    "successful": 127,
    "plastic": 127,
    "casting": 127,
    "winds": 127,
    "latest": 127,
    "##enia": 127,
    "hidden": 127,
    "compliance": 127,
    "##til": 127,
    "think": 127,
    "spirits": 127,
    "brain": 126,
    "consequences": 126,
    "vulnerability": 126,
    "mirror": 126,
    "laughter": 126,
    "whispered": 126,
    "conversation": 126,
    "native": 126,
    "##pra": 126,
    "continuous": 126,
    "invisible": 126,
    "##ric": 126,
    "##ced": 126,
    "sales": 126,
    "vegetables": 126,
    "secret": 126,
    "sounds": 125,
    "##tor": 125,
    "##ald": 125,
    "##lic": 125,
    "socio": 125,
    "profit": 125,
    "result": 125,
    "rising": 125,
    "garden": 125,
    "backdrop": 125,
    "celestial": 125,
    "waves": 125,
    "indeed": 124,
    "##hil": 124,
    "actions": 124,
    "ahead": 124,
    "entities": 124,
    "organic": 124,
    "bodies": 124,
    "farmers": 124,
    "lack": 124,
    "guide": 124,
    "inspire": 124,
    "implications": 123,
    "##hos": 123,
    "revealing": 123,
    "facing": 123,
    "##sa": 123,
    "said": 123,
    "thanks": 123,
    "##ening": 123,
    "sand": 123,
    "##igi": 123,
    "##rag": 123,
    "run": 123,
    "##wl": 123,
    "silver": 123,
    "##ara": 122,
    "##ish": 122,
    "thought": 122,
    "plants": 122,
    "##la": 122,
    "alarm": 122,
    "leaves": 122,
    "solely": 122,
    "inviting": 122,
    "ordinary": 122,
    "##ona": 122,
    "limited": 122,
    "coffee": 122,
    "user": 122,
    "##manship": 122,
    "##ant": 122,
    "##tom": 122,
    "tax": 121,
    "##ob": 121,
    "charm": 121,
    "ready": 121,
    "defined": 121,
    "##ique": 121,
    "net": 121,
    "lab": 121,
    "discourse": 121,
    "pride": 121,
    "##qua": 121,
    "##per": 121,
    "##pping": 121,
    "skies": 121,
    "##bu": 121,
    "##mp": 121,
    "seemingly": 120,
    "etched": 120,
    "insight": 120,
    "##5": 120,
    "increasing": 120,
    "rates": 120,
    "flexibility": 120,
    "entire": 120,
    "##cies": 120,
    "discussions": 120,
    "beginning": 120,
    "manage": 120,
    "stop": 120,
    "know": 120,
    "investing": 120,
    "interaction": 120,
    "implementation": 120,
    "spiritual": 120,
    "##ore": 119,
    "soon": 119,
    "technique": 119,
    "teachers": 119,
    "##apa": 118,
    "##dale": 118,
    "income": 118,
    "##erve": 118,
    "historic": 118,
    "hi": 118,
    "##tric": 118,
    "current": 118,
    "impacts": 118,
    "reform": 118,
    "##ifying": 118,
    "grace": 118,
    "fleet": 118,
    "giving": 118,
    "organization": 117,
    "chill": 117,
    "storms": 117,
    "##osis": 117,
    "break": 117,
    "##pin": 117,
    "ages": 117,
    "played": 117,
    "shifting": 117,
    "zero": 116,
    "medicine": 116,
    "adults": 116,
    "population": 116,
    "forces": 116,
    "spectrum": 116,
    "##art": 116,
    "emphasis": 116,
    "inclusion": 116,
    "flourish": 116,
    "alternative": 116,
    "failure": 116,
    "fit": 116,
    "inherent": 116,
    "passed": 116,
    "informed": 115,
    "valley": 115,
    "legend": 115,
    "technical": 115,
    "##bi": 115,
    "forecast": 115,
    "effectiveness": 115,
    "##ire": 115,
    "##tan": 115,
    "adaptive": 115,
    "leverage": 115,
    "keeping": 115,
    "bringing": 115,
    "##mara": 115,
    "exploring": 115,
    "automation": 115,
    "##ass": 114,
    "whispering": 114,
    "municipal": 114,
    "status": 114,
    "grow": 114,
    "demographic": 114,
    "dominated": 114,
    "quick": 114,
    "moments": 114,
    "monitoring": 114,
    "advent": 114,
    "skilled": 114,
    "overall": 114,
    "##ters": 114,
    "##ral": 114,
    "meals": 114,
    "##fa": 113,
    "push": 113,
    "firm": 113,
    "seems": 113,
    "sanctuary": 113,
    "##ible": 113,
    "aiming": 113,
    "sometimes": 113,
    "sweet": 113,
    "child": 113,
    "heard": 113,
    "higher": 113,
    "\u3002": 113,
    "yoga": 113,
    "housing": 112,
    "finds": 112,
    "started": 112,
    "provided": 112,
    "folk": 112,
    "sized": 112,
    "parallel": 112,
    "drive": 112,
    "owner": 112,
    "journeys": 112,
    "ventures": 112,
    "board": 112,
    "advocacy": 112,
    "##ned": 112,
    "equal": 112,
    "star": 112,
    "whole": 112,
    "##ult": 112,
    "legal": 111,
    "##ors": 111,
    "sensitive": 111,
    "defenses": 111,
    "little": 111,
    "attack": 111,
    "acknowledging": 111,
    "encourages": 111,
    "subtle": 111,
    "enduring": 111,
    "atmosphere": 111,
    "##uli": 111,
    "athletic": 111,
    "civilization": 110,
    "brand": 110,
    "root": 110,
    "##aving": 110,
    "perspectives": 110,
    "expanse": 110,
    "secrets": 110,
    "##fines": 110,
    "swept": 110,
    "transforms": 110,
    "protect": 110,
    "constraints": 110,
    "track": 110,
    "depth": 110,
    "gone": 110,
    "robotic": 110,
    "armed": 110,
    "closer": 110,
    "leader": 110,
    "forgotten": 110,
    "##fit": 110,
    "poll": 109,
    "seemed": 109,
    "humble": 109,
    "##we": 109,
    "loss": 109,
    "carefully": 109,
    "debate": 109,
    "corporations": 109,
    "seed": 109,
    "decisions": 109,
    "aspirations": 109,
    "reduced": 109,
    "potent": 109,
    "forge": 109,
    "shopping": 109,
    "##ped": 109,
    "equipment": 109,
    "bar": 108,
    "conversations": 108,
    "gal": 108,
    "##ms": 108,
    "discovery": 108,
    "burden": 108,
    "three": 108,
    "volunteer": 108,
    "involves": 108,
    "plant": 108,
    "following": 108,
    "looking": 108,
    "politics": 108,
    "distant": 108,
    "shine": 108,
    "revival": 108,
    "sources": 108,
    "##rted": 108,
    "standard": 108,
    "positive": 108,
    "##tron": 108,
    "tire": 108,
    "along": 108,
    "avenue": 108,
    "wealth": 108,
    "moon": 107,
    "extraordinary": 107,
    "reflection": 107,
    "principles": 107,
    "apps": 107,
    "depths": 107,
    "jobs": 107,
    "excellence": 107,
    "sing": 106,
    "ancestors": 106,
    "message": 106,
    "##roma": 106,
    "##ples": 106,
    "paced": 106,
    "west": 106,
    "routine": 106,
    "note": 106,
    "paint": 106,
    "fear": 106,
    "##day": 106,
    "improve": 106,
    "approaches": 106,
    "super": 106,
    "treasure": 106,
    "warmth": 106,
    "highlight": 106,
    "##hea": 106,
    "prop": 106,
    "acts": 106,
    "reveals": 106,
    "quietly": 106,
    "gathering": 106,
    "##gon": 106,
    "gig": 106,
    "authentic": 105,
    "substance": 105,
    "gaps": 105,
    "kind": 105,
    "confidence": 105,
    "meetings": 105,
    "transport": 105,
    "improved": 105,
    "stability": 105,
    "cook": 105,
    "audiences": 104,
    "watch": 104,
    "heir": 104,
    "choices": 104,
    "reliance": 104,
    "##ners": 104,
    "spectacle": 104,
    "##makers": 104,
    "##vor": 104,
    "##tte": 104,
    "##isan": 104,
    "##ncy": 104,
    "evident": 104,
    "jack": 104,
    "build": 104,
    "regulations": 103,
    "cleaner": 103,
    "annual": 103,
    "chance": 103,
    "complexity": 103,
    "pale": 103,
    "##be": 103,
    "promote": 103,
    "##uc": 103,
    "scenario": 103,
    "aftermath": 103,
    "report": 103,
    "awake": 103,
    "previously": 103,
    "30": 103,
    "managing": 103,
    "##cos": 103,
    "instrumental": 103,
    "##eb": 103,
    "##bs": 103,
    "delivery": 103,
    "##path": 103,
    "creatures": 102,
    "##nts": 102,
    "##tro": 102,
    "gaming": 102,
    "screens": 102,
    "##yrinth": 102,
    "##cing": 102,
    "agricultural": 102,
    "women": 102,
    "##ris": 102,
    "property": 102,
    "##ces": 102,
    "focused": 102,
    "relationships": 102,
    "##mo": 102,
    "disco": 102,
    "quickly": 102,
    "broad": 102,
    "owners": 102,
    "##rit": 102,
    "fun": 102,
    "##mer": 101,
    "link": 101,
    "gold": 101,
    "vulnerable": 101,
    "fate": 101,
    "##ast": 101,
    "##ny": 101,
    "million": 101,
    "movements": 101,
    "asserts": 101,
    "created": 101,
    "##ram": 100,
    "bout": 100,
    "look": 100,
    "brush": 100,
    "##ield": 100,
    "supporting": 100,
    "expanding": 100,
    "celebrate": 100,
    "##book": 100,
    "crowd": 100,
    "then": 100,
    "ignited": 100,
    "engineering": 100,
    "marathon": 100,
    "staff": 100,
    "steel": 100,
    "marketplace": 100,
    "department": 100,
    "points": 99,
    "##ari": 99,
    "sign": 99,
    "pushing": 99,
    "forest": 99,
    "calendar": 99,
    "##uca": 99,
    "##da": 99,
    "starting": 99,
    "backgrounds": 99,
    "ten": 99,
    "cosmic": 99,
    "##inda": 99,
    "places": 99,
    "progressive": 99,
    "pp": 99,
    "compassion": 99,
    "athlete": 99,
    "\u4e00": 99,
    "fiction": 98,
    "##twined": 98,
    "moral": 98,
    "##gor": 98,
    "midst": 98,
    "ups": 98,
    "##found": 98,
    "##vers": 98,
    "saving": 98,
    "cause": 98,
    "##tel": 98,
    "size": 98,
    "area": 98,
    "reminding": 98,
    "formidable": 98,
    "aspects": 98,
    "##ou": 98,
    "sentiment": 98,
    "myth": 98,
    "##yne": 98,
    "factor": 98,
    "perhaps": 98,
    "##plified": 98,
    "offerings": 98,
    "responsible": 97,
    "##uo": 97,
    "failures": 97,
    "bureau": 97,
    "range": 97,
    "##nti": 97,
    "adds": 97,
    "walk": 97,
    "advocates": 97,
    "incorporating": 97,
    "realities": 97,
    "marks": 97,
    "possible": 97,
    "director": 97,
    "authenticity": 97,
    "though": 97,
    "player": 97,
    "apart": 97,
    "##rout": 97,
    "investments": 97,
    "citizen": 97,
    "##sing": 97,
    "components": 97,
    "sought": 97,
    "##dian": 96,
    "mosaic": 96,
    "signals": 96,
    "##it": 96,
    "carry": 96,
    "beloved": 96,
    "reflect": 96,
    "##cula": 96,
    "##ration": 96,
    "assessment": 96,
    "standing": 96,
    "counter": 96,
    "advocating": 96,
    "pillars": 96,
    "ram": 96,
    "enthusiasm": 96,
    "continents": 96,
    "alive": 96,
    "visitors": 96,
    "melody": 96,
    "ongoing": 96,
    "##house": 96,
    "##riad": 96,
    "##shing": 96,
    "robe": 96,
    "##vis": 95,
    "wetlands": 95,
    "behavior": 95,
    "guidelines": 95,
    "university": 95,
    "member": 95,
    "reduction": 95,
    "##ments": 95,
    "##wine": 95,
    "captured": 95,
    "gained": 95,
    "potentially": 95,
    "##stic": 95,
    "feedback": 95,
    "##lit": 95,
    "societies": 95,
    "demonstrated": 95,
    "months": 95,
    "satisfaction": 95,
    "souls": 95,
    "seem": 95,
    "##isans": 95,
    "utility": 95,
    "angel": 95,
    "audit": 94,
    "difference": 94,
    "##iv": 94,
    "entertainment": 94,
    "silence": 94,
    "laws": 94,
    "##iza": 94,
    "epic": 94,
    "commercial": 94,
    "founded": 94,
    "looming": 94,
    "required": 94,
    "inception": 94,
    "##prints": 94,
    "considered": 94,
    "implementing": 94,
    "domain": 94,
    "pressure": 94,
    "oak": 94,
    "regardless": 94,
    "##urge": 94,
    "bounty": 94,
    "##ery": 94,
    "includes": 94,
    "used": 94,
    "expense": 94,
    "winter": 94,
    "educate": 94,
    "middle": 94,
    "manufacturing": 94,
    "##yper": 93,
    "widespread": 93,
    "painted": 93,
    "##yl": 93,
    "merging": 93,
    "##ivo": 93,
    "room": 93,
    "fight": 93,
    "otherwise": 93,
    "##eld": 93,
    "geographical": 93,
    "view": 93,
    "fish": 93,
    "onto": 93,
    "decades": 93,
    "acknowledge": 93,
    "elderly": 93,
    "custom": 93,
    "sprawling": 93,
    "genetic": 92,
    "games": 92,
    "parties": 92,
    "resident": 92,
    "##her": 92,
    "lesson": 92,
    "moving": 92,
    "buildings": 92,
    "throughout": 92,
    "substantial": 92,
    "presents": 92,
    "initial": 92,
    "last": 92,
    "revered": 92,
    "mix": 92,
    "##ean": 92,
    "##ifies": 92,
    "##ries": 92,
    "fruits": 92,
    "meeting": 92,
    "sport": 92,
    "seas": 92,
    "improvement": 92,
    "##roads": 91,
    "##rification": 91,
    "##ification": 91,
    "synonymous": 91,
    "makes": 91,
    "augmented": 91,
    "developed": 91,
    "almost": 91,
    "veil": 91,
    "contributing": 91,
    "thus": 91,
    "##lace": 91,
    "already": 91,
    "##than": 91,
    "anxiety": 91,
    "him": 91,
    "##nating": 91,
    "##wind": 91,
    "logistics": 91,
    "consumption": 91,
    "greater": 91,
    "aid": 91,
    "pilgrimage": 91,
    "##cycle": 90,
    "chronic": 90,
    "##igma": 90,
    "sudden": 90,
    "device": 90,
    "##iling": 90,
    "##alle": 90,
    "universe": 90,
    "##yi": 90,
    "fortress": 90,
    "classes": 90,
    "##ear": 90,
    "unpredictable": 90,
    "principle": 90,
    "allowed": 90,
    "solid": 90,
    "supports": 90,
    "preferences": 90,
    "##zes": 90,
    "disc": 90,
    "arms": 90,
    "##do": 90,
    "##ook": 90,
    "associated": 90,
    "pathways": 90,
    "##ys": 89,
    "##hy": 89,
    "retailers": 89,
    "thrill": 89,
    "##water": 89,
    "##oth": 89,
    "rhythms": 89,
    "faces": 89,
    "##ying": 89,
    "multiple": 89,
    "character": 89,
    "gather": 89,
    "observed": 89,
    "respond": 89,
    "steep": 89,
    "capable": 89,
    "worlds": 89,
    "book": 89,
    "specifically": 89,
    "smooth": 89,
    "des": 89,
    "law": 89,
    "##pa": 89,
    "interact": 89,
    "meat": 89,
    "poised": 88,
    "league": 88,
    "soft": 88,
    "nor": 88,
    "extend": 88,
    "intellectual": 88,
    "put": 88,
    "revelation": 88,
    "disrupted": 88,
    "illuminated": 88,
    "laid": 88,
    "limits": 88,
    "##ient": 88,
    "gatherings": 88,
    "stakeholders": 88,
    "balancing": 88,
    "equity": 88,
    "victory": 88,
    "courses": 88,
    "isolated": 88,
    "electronic": 87,
    "capacity": 87,
    "able": 87,
    "sweeping": 87,
    "##een": 87,
    "battlefield": 87,
    "psychological": 87,
    "chains": 87,
    "anticipation": 87,
    "##ncies": 87,
    "gym": 87,
    "incentives": 87,
    "##rn": 87,
    "disaster": 87,
    "plate": 87,
    "achieve": 87,
    "##ility": 87,
    "routines": 87,
    "shed": 86,
    "chin": 86,
    "striking": 86,
    "metaphor": 86,
    "opening": 86,
    "rituals": 86,
    "##ink": 86,
    "consider": 86,
    "goods": 86,
    "distinct": 86,
    "compass": 86,
    "legislation": 86,
    "above": 86,
    "##mize": 86,
    "abuse": 86,
    "rain": 86,
    "four": 86,
    "sword": 86,
    "leg": 86,
    "cut": 86,
    "developing": 86,
    "hind": 86,
    "benefit": 86,
    "top": 86,
    "stay": 86,
    "decent": 86,
    "##kins": 86,
    "forums": 86,
    "planting": 85,
    "divers": 85,
    "##owed": 85,
    "spread": 85,
    "fears": 85,
    "esteem": 85,
    "lay": 85,
    "##sten": 85,
    "glow": 85,
    "appeal": 85,
    "mass": 85,
    "##ici": 85,
    "solving": 85,
    "habitats": 85,
    "balanced": 85,
    "texture": 85,
    "mother": 85,
    "providers": 84,
    "##gy": 84,
    "debates": 84,
    "tell": 84,
    "conference": 84,
    "autonomous": 84,
    "marriage": 84,
    "abilities": 84,
    "resolve": 84,
    "learned": 84,
    "drawing": 84,
    "##bed": 84,
    "##ill": 84,
    "inspiration": 84,
    "pages": 84,
    "grim": 84,
    "##igate": 84,
    "person": 84,
    "habitat": 84,
    "ones": 84,
    "##pace": 84,
    "prove": 84,
    "believes": 84,
    "question": 84,
    "##tle": 84,
    "##fic": 84,
    "reign": 84,
    "struggles": 84,
    "leagues": 84,
    "recipe": 84,
    "##men": 84,
    "##rg": 84,
    "volunteers": 83,
    "##un": 83,
    "books": 83,
    "given": 83,
    "participant": 83,
    "rights": 83,
    "leave": 83,
    "calm": 83,
    "##und": 83,
    "##nect": 83,
    "##lea": 83,
    "flu": 83,
    "seeing": 83,
    "warm": 83,
    "continue": 83,
    "##and": 83,
    "##ami": 83,
    "bond": 83,
    "double": 83,
    "populations": 83,
    "towering": 83,
    "desire": 83,
    "regions": 83,
    "several": 83,
    "x": 82,
    "tree": 82,
    "believe": 82,
    "thereby": 82,
    "soccer": 82,
    "momentum": 82,
    "hit": 82,
    "chief": 82,
    "##gan": 82,
    "speaking": 82,
    "intersection": 82,
    "##eries": 82,
    "##pit": 82,
    "melting": 82,
    "inventory": 82,
    "talents": 82,
    "rest": 82,
    "aesthetic": 82,
    "limitations": 82,
    "patient": 82,
    "emblem": 82,
    "demanding": 82,
    "capturing": 82,
    "curiosity": 82,
    "funds": 82,
    "celebrating": 82,
    "##bei": 82,
    "elementary": 82,
    "emissions": 81,
    "##ca": 81,
    "##mi": 81,
    "##ware": 81,
    "excitement": 81,
    "chat": 81,
    "##use": 81,
    "sensors": 81,
    "##can": 81,
    "##gma": 81,
    "terrain": 81,
    "constant": 81,
    "##ern": 81,
    "lifelong": 81,
    "meal": 81,
    "loyalty": 81,
    "pillar": 81,
    "introducing": 81,
    "monitor": 81,
    "notion": 81,
    "layers": 81,
    "leads": 81,
    "keys": 81,
    "prominent": 81,
    "lurking": 81,
    "countries": 81,
    "wood": 81,
    "material": 81,
    "matters": 81,
    "norms": 81,
    "win": 81,
    "tells": 80,
    "##rum": 80,
    "summit": 80,
    "built": 80,
    "##sto": 80,
    "base": 80,
    "month": 80,
    "speak": 80,
    "##med": 80,
    "five": 80,
    "##city": 80,
    "##ined": 80,
    "particular": 80,
    "return": 80,
    "sat": 80,
    "roads": 80,
    "amid": 80,
    "twist": 80,
    "collection": 80,
    "neighbors": 80,
    "proven": 80,
    "securing": 80,
    "click": 80,
    "simultaneously": 80,
    "##hi": 80,
    "##ync": 79,
    "doing": 79,
    "##lined": 79,
    "##ils": 79,
    "##ina": 79,
    "contrast": 79,
    "##dia": 79,
    "having": 79,
    "spectral": 79,
    "##rock": 79,
    "chorus": 79,
    "special": 79,
    "haunting": 79,
    "counterparts": 79,
    "treasures": 79,
    "colors": 79,
    "numerous": 79,
    "speaks": 79,
    "interactions": 79,
    "prevention": 79,
    "reliability": 79,
    "##ency": 79,
    "##dom": 79,
    "swift": 79,
    "utilizing": 79,
    "fascinating": 79,
    "element": 79,
    "##ases": 79,
    "activism": 78,
    "elections": 78,
    "ban": 78,
    "telecommunications": 78,
    "brick": 78,
    "14": 78,
    "acting": 78,
    "tap": 78,
    "##rea": 78,
    "bi": 78,
    "main": 78,
    "##dox": 78,
    "diseases": 78,
    "##board": 78,
    "complement": 78,
    "##chi": 78,
    "##bur": 78,
    "things": 78,
    "belonging": 78,
    "expenses": 78,
    "inadvertently": 78,
    "##izes": 78,
    "names": 78,
    "questions": 78,
    "saga": 78,
    "represent": 78,
    "layer": 78,
    "measure": 78,
    "sites": 78,
    "##bly": 78,
    "facilities": 78,
    "dwell": 78,
    "##ured": 77,
    "foundations": 77,
    "##time": 77,
    "valuable": 77,
    "emotions": 77,
    "democracy": 77,
    "##aj": 77,
    "##outs": 77,
    "##scraper": 77,
    "##ok": 77,
    "notable": 77,
    "locals": 77,
    "patients": 77,
    "feels": 77,
    "guided": 77,
    "possibilities": 77,
    "##child": 77,
    "appreciation": 77,
    "affordable": 77,
    "mini": 77,
    "showcased": 77,
    "tee": 77,
    "memory": 77,
    "existing": 77,
    "##beth": 77,
    "facilitate": 77,
    "improving": 77,
    "foods": 77,
    "##bility": 77,
    "encryption": 77,
    "launching": 77,
    "illustrate": 77,
    "##post": 76,
    "screening": 76,
    "second": 76,
    "gravity": 76,
    "##had": 76,
    "aesthetics": 76,
    "##eor": 76,
    "obstacles": 76,
    "##lim": 76,
    "mortar": 76,
    "habits": 76,
    "harsh": 76,
    "##rra": 76,
    "interview": 76,
    "context": 76,
    "##ously": 76,
    "thousands": 76,
    "extra": 76,
    "blur": 76,
    "passive": 76,
    "stores": 76,
    "nut": 76,
    "number": 76,
    "identifying": 76,
    "ancestral": 76,
    "rally": 76,
    "renewed": 75,
    "manifest": 75,
    "##ip": 75,
    "awe": 75,
    "##ified": 75,
    "lens": 75,
    "##og": 75,
    "uncertainty": 75,
    "##ther": 75,
    "seasons": 75,
    "intervention": 75,
    "ethics": 75,
    "precious": 75,
    "college": 75,
    "##stro": 75,
    "democratic": 75,
    "##oms": 75,
    "##tha": 75,
    "ownership": 75,
    "mechanisms": 75,
    "##ixel": 75,
    "turns": 75,
    "##vere": 75,
    "##ks": 75,
    "neglect": 75,
    "enough": 75,
    "rate": 75,
    "unknown": 75,
    "distribution": 75,
    "##front": 75,
    "statement": 75,
    "protocols": 75,
    "stride": 75,
    "textbooks": 75,
    "coach": 75,
    "clubs": 74,
    "##hem": 74,
    "rules": 74,
    "veins": 74,
    "primary": 74,
    "##cratic": 74,
    "begun": 74,
    "##ga": 74,
    "##ili": 74,
    "coastal": 74,
    "problems": 74,
    "investors": 74,
    "##orn": 74,
    "edged": 74,
    "pen": 74,
    "##nding": 74,
    "##ions": 74,
    "##iga": 74,
    "stakes": 74,
    "log": 74,
    "ritual": 74,
    "du": 74,
    "barrier": 74,
    "##isa": 74,
    "##thus": 74,
    "sustain": 74,
    "electricity": 74,
    "##ice": 73,
    "##rist": 73,
    "severe": 73,
    "##min": 73,
    "stance": 73,
    "maze": 73,
    "##pes": 73,
    "tracking": 73,
    "##ld": 73,
    "initially": 73,
    "##sm": 73,
    "related": 73,
    "strengthen": 73,
    "assets": 73,
    "gaining": 73,
    "function": 73,
    "encourage": 73,
    "similar": 73,
    "results": 73,
    "billion": 73,
    "masterpiece": 73,
    "suddenly": 73,
    "##asis": 73,
    "renewal": 73,
    "phase": 73,
    "managed": 73,
    "remarks": 73,
    "unfolded": 73,
    "##ln": 73,
    "rigorous": 73,
    "##vision": 73,
    "lie": 73,
    "inventor": 72,
    "situation": 72,
    "candidates": 72,
    "##gue": 72,
    "decade": 72,
    "17": 72,
    "lower": 72,
    "##fia": 72,
    "display": 72,
    "running": 72,
    "traditionally": 72,
    "dim": 72,
    "initiated": 72,
    "landmark": 72,
    "adorned": 72,
    "understands": 72,
    "teach": 72,
    "unite": 72,
    "##raverse": 72,
    "##ens": 72,
    "achieving": 72,
    "##head": 72,
    "##ways": 72,
    "inhabitants": 72,
    "expanded": 72,
    "##zy": 71,
    "screen": 71,
    "close": 71,
    "##ack": 71,
    "string": 71,
    "dive": 71,
    "seeks": 71,
    "warriors": 71,
    "announced": 71,
    "##via": 71,
    "younger": 71,
    "determined": 71,
    "##rove": 71,
    "contributions": 71,
    "genuine": 71,
    "nod": 71,
    "bear": 71,
    "commuter": 71,
    "##ray": 71,
    "##ila": 71,
    "check": 71,
    "##coming": 71,
    "hurdles": 71,
    "committed": 71,
    "cent": 71,
    "representation": 71,
    "session": 71,
    "village": 71,
    "encouraged": 71,
    "fruit": 71,
    "sharp": 71,
    "##ford": 71,
    "disease": 70,
    "linked": 70,
    "door": 70,
    "capsule": 70,
    "require": 70,
    "beats": 70,
    "updates": 70,
    "fertile": 70,
    "aspiring": 70,
    "##inal": 70,
    "courage": 70,
    "min": 70,
    "walks": 70,
    "fury": 70,
    "offered": 70,
    "recently": 70,
    "reward": 70,
    "establishment": 70,
    "feast": 70,
    "intimate": 70,
    "##dez": 70,
    "metric": 70,
    "discovered": 70,
    "expand": 70,
    "buses": 70,
    "##ias": 70,
    "##cis": 70,
    "##tre": 70,
    "lake": 69,
    "##att": 69,
    "##way": 69,
    "color": 69,
    "founder": 69,
    "basic": 69,
    "##ckling": 69,
    "##am": 69,
    "mirrors": 69,
    "academy": 69,
    "##gu": 69,
    "entry": 69,
    "literally": 69,
    "understood": 69,
    "digit": 69,
    "discipline": 69,
    "radical": 69,
    "architects": 69,
    "##ome": 69,
    "/": 69,
    "supernatural": 69,
    "25": 69,
    "wider": 69,
    "##mat": 69,
    "staple": 69,
    "popularity": 69,
    "enforcement": 69,
    "##van": 69,
    "seat": 68,
    "affecting": 68,
    "cloak": 68,
    "##len": 68,
    "summer": 68,
    "##rd": 68,
    "##cover": 68,
    "word": 68,
    "##los": 68,
    "incidents": 68,
    "reading": 68,
    "##tated": 68,
    "undergoing": 68,
    "##lin": 68,
    "##lining": 68,
    "dining": 68,
    "##sy": 68,
    "disasters": 68,
    "architecture": 68,
    "factors": 68,
    "dessert": 68,
    "##wing": 68,
    "treatment": 68,
    "##aco": 68,
    "elect": 67,
    "##ena": 67,
    "damage": 67,
    "##san": 67,
    "performances": 67,
    "grants": 67,
    "white": 67,
    "##wo": 67,
    "##ists": 67,
    "##read": 67,
    "implemented": 67,
    "id": 67,
    "detection": 67,
    "##rm": 67,
    "include": 67,
    "##vel": 67,
    "##hor": 67,
    "##itate": 67,
    "forever": 67,
    "##che": 67,
    "exclusive": 67,
    "bed": 67,
    "why": 67,
    "basketball": 67,
    "##raught": 67,
    "follow": 67,
    "experiencing": 67,
    "##uses": 67,
    "overhaul": 67,
    "##stal": 67,
    "##tered": 67,
    "eastern": 67,
    "shaped": 67,
    "##rom": 67,
    "marine": 67,
    "reforms": 67,
    "pick": 67,
    "wise": 67,
    "creations": 67,
    "machines": 67,
    "fat": 67,
    "valued": 67,
    "merge": 67,
    "##lis": 67,
    "mythology": 66,
    "##metric": 66,
    "former": 66,
    "period": 66,
    "drone": 66,
    "electrical": 66,
    "firms": 66,
    "##kes": 66,
    "safer": 66,
    "lame": 66,
    "grown": 66,
    "##ki": 66,
    "officials": 66,
    "demonstrates": 66,
    "easily": 66,
    "endless": 66,
    "smaller": 66,
    "feature": 66,
    "spot": 66,
    "background": 66,
    "fragment": 66,
    "available": 66,
    "afford": 66,
    "peers": 66,
    "brighter": 66,
    "tall": 66,
    "depend": 66,
    "sour": 66,
    "applications": 66,
    "##unt": 66,
    "promised": 66,
    "stages": 66,
    "instant": 66,
    "##atic": 66,
    "paints": 66,
    "heavy": 66,
    "gain": 66,
    "computer": 66,
    "##tin": 66,
    "##serve": 65,
    "armor": 65,
    "##log": 65,
    "fin": 65,
    "##ition": 65,
    "gaze": 65,
    "everything": 65,
    "isolation": 65,
    "stirring": 65,
    "##ido": 65,
    "carrying": 65,
    "grounds": 65,
    "explained": 65,
    "engineer": 65,
    "##wn": 65,
    "##ground": 65,
    "dollar": 65,
    "##tch": 65,
    "halt": 65,
    "##del": 65,
    "##ory": 65,
    "##fying": 65,
    "waiting": 65,
    "##uristic": 65,
    "##nic": 65,
    "normal": 65,
    "named": 65,
    "identities": 65,
    "##ew": 65,
    "phenomena": 65,
    "bell": 65,
    "##ura": 65,
    "##rises": 65,
    "meaningful": 65,
    "relevant": 65,
    "continues": 65,
    "stronger": 65,
    "structure": 65,
    "operate": 65,
    "revenue": 65,
    "rooftop": 65,
    "walking": 65,
    "stem": 65,
    "brave": 65,
    "flexible": 65,
    "##point": 65,
    "##dit": 65,
    "alliances": 65,
    "##food": 65,
    "peace": 65,
    "##pher": 64,
    "compete": 64,
    "##ward": 64,
    "crystal": 64,
    "bind": 64,
    "emergence": 64,
    "##munication": 64,
    "stroke": 64,
    "scenes": 64,
    "near": 64,
    "beings": 64,
    "##word": 64,
    "##rsen": 64,
    "shops": 64,
    "bin": 64,
    "ambition": 64,
    "partner": 64,
    "recognize": 64,
    "signs": 64,
    "##rate": 64,
    "quite": 64,
    "##boards": 64,
    "characterized": 64,
    "reduces": 64,
    "7": 64,
    "peer": 64,
    "receive": 64,
    "minimize": 64,
    "mob": 64,
    "concepts": 64,
    "##lli": 64,
    "inner": 64,
    "supportive": 64,
    "##hir": 64,
    "police": 64,
    "target": 63,
    "relevance": 63,
    "ji": 63,
    "fine": 63,
    "eerie": 63,
    "video": 63,
    "##iro": 63,
    "##une": 63,
    "mile": 63,
    "fund": 63,
    "targeted": 63,
    "##scope": 63,
    "##ose": 63,
    "##cious": 63,
    "##sol": 63,
    "playground": 63,
    "deliver": 63,
    "unnoticed": 63,
    "psychologist": 63,
    "concert": 63,
    "wings": 63,
    "scientists": 63,
    "confront": 63,
    "adopt": 63,
    "15th": 63,
    "par": 63,
    "##nd": 63,
    "##leashed": 63,
    "connects": 63,
    "##ical": 63,
    "enterprise": 63,
    "realization": 63,
    "##usive": 63,
    "##ising": 63,
    "survive": 63,
    "pioneer": 63,
    "authorities": 63,
    "##ky": 63,
    "mysterious": 63,
    "stating": 63,
    "mean": 63,
    "##car": 63,
    "slow": 63,
    "objectives": 63,
    "week": 63,
    "heal": 63,
    "encounter": 63,
    "##gment": 63,
    "meditation": 63,
    "third": 62,
    "options": 62,
    "##ute": 62,
    "mystery": 62,
    "presented": 62,
    "musical": 62,
    "##etic": 62,
    "##loss": 62,
    "##quent": 62,
    "sight": 62,
    "expectations": 62,
    "envisioned": 62,
    "vehicle": 62,
    "surrounding": 62,
    "mandate": 62,
    "supported": 62,
    "crops": 62,
    "channels": 62,
    "knew": 62,
    "##vo": 62,
    "added": 62,
    "feat": 62,
    "preparing": 62,
    "curious": 62,
    "later": 62,
    "##cho": 62,
    "##ax": 62,
    "specialized": 62,
    "promotes": 62,
    "leaf": 62,
    "begin": 62,
    "wage": 62,
    "passing": 62,
    "club": 62,
    "date": 61,
    "cooperation": 61,
    "gathered": 61,
    "##rank": 61,
    "banner": 61,
    "senses": 61,
    "##gia": 61,
    "respected": 61,
    "proof": 61,
    "coalition": 61,
    "##tep": 61,
    "000": 61,
    "static": 61,
    "##ience": 61,
    "pockets": 61,
    "until": 61,
    "birds": 61,
    "holding": 61,
    "##my": 61,
    "noted": 61,
    "aware": 61,
    "raw": 61,
    "conductor": 61,
    "faster": 61,
    "honor": 61,
    "symbolic": 61,
    "band": 61,
    "pool": 61,
    "##hoe": 61,
    "estate": 61,
    "##ade": 61,
    "massive": 61,
    "develop": 61,
    "heavily": 61,
    "reliable": 61,
    "norm": 61,
    "arm": 61,
    "algorithm": 61,
    "##fe": 61,
    "silicon": 61,
    "curated": 61,
    "eating": 61,
    "principal": 61,
    "zones": 60,
    "##irt": 60,
    "##var": 60,
    "##mark": 60,
    "calls": 60,
    "mythical": 60,
    "##ril": 60,
    "##ron": 60,
    "exist": 60,
    "##tive": 60,
    "stations": 60,
    "##nch": 60,
    "settings": 60,
    "danced": 60,
    "##dote": 60,
    "##ables": 60,
    "breed": 60,
    "freedom": 60,
    "federal": 60,
    "herself": 60,
    "chronicles": 60,
    "##els": 60,
    "locally": 60,
    "raised": 60,
    "##king": 60,
    "intriguing": 60,
    "##sium": 60,
    "inaugurated": 60,
    "##aut": 60,
    "##zers": 60,
    "engaged": 60,
    "mystical": 60,
    "assessments": 60,
    "efficiently": 60,
    "replaced": 60,
    "death": 60,
    "puts": 60,
    "##ai": 60,
    "##lam": 60,
    "replica": 60,
    "##rgy": 60,
    "##its": 60,
    "threatening": 60,
    "helping": 60,
    "involved": 60,
    "terms": 60,
    "because": 60,
    "officer": 60,
    "ship": 60,
    "define": 60,
    "repair": 59,
    "##by": 59,
    "original": 59,
    "records": 59,
    "reported": 59,
    "##oud": 59,
    "cold": 59,
    "features": 59,
    "money": 59,
    "weeks": 59,
    "##ert": 59,
    "household": 59,
    "breakthrough": 59,
    "motion": 59,
    "important": 59,
    "##rry": 59,
    "congestion": 59,
    "beliefs": 59,
    "22": 59,
    "price": 59,
    "spent": 59,
    "ingredient": 59,
    "reputation": 59,
    "preparation": 59,
    "educator": 59,
    "avant": 59,
    "requiring": 59,
    "ease": 59,
    "##tering": 59,
    "explores": 59,
    "##phones": 59,
    "currents": 59,
    "##lut": 59,
    "dust": 59,
    "adopting": 59,
    "caution": 59,
    "##ley": 59,
    "map": 59,
    "careers": 59,
    "coaches": 59,
    "##eal": 59,
    "partners": 59,
    "##nne": 59,
    "##woman": 59,
    "##tronomy": 59,
    "banks": 59,
    "miles": 59,
    "##mpest": 59,
    "##rane": 59,
    "pain": 59,
    "vertical": 59,
    "##lyn": 58,
    "##rrow": 58,
    "evening": 58,
    "communications": 58,
    "caf\u00e9": 58,
    "##cent": 58,
    "proved": 58,
    "hailed": 58,
    "insurance": 58,
    "restore": 58,
    "##trate": 58,
    "financing": 58,
    "depression": 58,
    "priorities": 58,
    "##cum": 58,
    "order": 58,
    "##cco": 58,
    "mat": 58,
    "staying": 58,
    "##cor": 58,
    "hot": 58,
    "##chel": 58,
    "dollars": 58,
    "rose": 58,
    "##verance": 58,
    "endurance": 58,
    "garde": 58,
    "decline": 58,
    "##fused": 58,
    "north": 58,
    "struggling": 58,
    "advantage": 58,
    "wonders": 58,
    "carries": 58,
    "stock": 58,
    "duo": 58,
    "caught": 58,
    "box": 58,
    "savings": 58,
    "creators": 58,
    "gardening": 58,
    "##nders": 58,
    "noise": 57,
    "##rge": 57,
    "arch": 57,
    "##ars": 57,
    "dramatically": 57,
    "##cape": 57,
    "designs": 57,
    "lungs": 57,
    "agenda": 57,
    "##tly": 57,
    "##rie": 57,
    "requirements": 57,
    "administration": 57,
    "legislative": 57,
    "ash": 57,
    "wizard": 57,
    "##voc": 57,
    "scheduled": 57,
    "bakery": 57,
    "memories": 57,
    "tasks": 57,
    "globally": 57,
    "fully": 57,
    "absence": 57,
    "##ev": 57,
    "##pass": 57,
    "##ged": 57,
    "5th": 57,
    "identify": 57,
    "fill": 57,
    "origins": 57,
    "oversight": 57,
    "abstract": 57,
    "giant": 57,
    "paper": 57,
    "transaction": 57,
    "honored": 57,
    "routes": 57,
    "committee": 57,
    "##ilitating": 57,
    "humans": 57,
    "achieved": 57,
    "##ual": 57,
    "gender": 57,
    "##net": 56,
    "eve": 56,
    "textiles": 56,
    "dem": 56,
    "silently": 56,
    "orchestrated": 56,
    "intense": 56,
    "##enter": 56,
    "harbor": 56,
    "reached": 56,
    "withstand": 56,
    "visibility": 56,
    "flame": 56,
    "sunny": 56,
    "organized": 56,
    "reveal": 56,
    "called": 56,
    "historically": 56,
    "application": 56,
    "##sin": 56,
    "went": 56,
    "give": 56,
    "degradation": 56,
    "##ict": 56,
    "breathed": 56,
    "popular": 56,
    "accuracy": 56,
    "##gen": 56,
    "reporting": 56,
    "##arity": 56,
    "interests": 56,
    "classical": 56,
    "clarity": 56,
    "dove": 56,
    "retention": 56,
    "reflected": 56,
    "impressive": 56,
    "parts": 56,
    "8": 56,
    "systemic": 56,
    "divine": 56,
    "fits": 56,
    "neglected": 56,
    "trials": 56,
    "policing": 56,
    "adding": 56,
    "processing": 56,
    "##nto": 55,
    "relief": 55,
    "stir": 55,
    "##pticism": 55,
    "##the": 55,
    "##ably": 55,
    "hollow": 55,
    "proposed": 55,
    "pin": 55,
    "##vated": 55,
    "##hang": 55,
    "passage": 55,
    "elite": 55,
    "##fast": 55,
    "want": 55,
    "friends": 55,
    "operation": 55,
    "enthusiastic": 55,
    "losses": 55,
    "oceans": 55,
    "half": 55,
    "forged": 55,
    "wonder": 55,
    "##matic": 55,
    "supreme": 55,
    "##vent": 55,
    "spectators": 55,
    "forming": 55,
    "##hesion": 55,
    "bank": 55,
    "match": 55,
    "##0": 55,
    "##fers": 55,
    "bread": 55,
    "add": 55,
    "spices": 55,
    "temperatures": 55,
    "##hand": 55,
    "injury": 55,
    "pressures": 55,
    "##isco": 55,
    "##cre": 55,
    "threatens": 55,
    "described": 54,
    "##she": 54,
    "snow": 54,
    "##ay": 54,
    "##bell": 54,
    "##ree": 54,
    "##sight": 54,
    "##gene": 54,
    "lit": 54,
    "magnetic": 54,
    "creature": 54,
    "##side": 54,
    "perception": 54,
    "##voke": 54,
    "##hen": 54,
    "password": 54,
    "collaborations": 54,
    "woman": 54,
    "unit": 54,
    "oil": 54,
    "immune": 54,
    "traction": 54,
    "machinery": 54,
    "mac": 54,
    "knowing": 54,
    "incorporate": 54,
    "y": 54,
    "territories": 54,
    "class": 54,
    "##vate": 54,
    "wheels": 54,
    "eat": 54,
    "simplicity": 54,
    "answer": 54,
    "pay": 54,
    "##ened": 54,
    "talk": 54,
    "classic": 54,
    "carved": 54,
    "outreach": 54,
    "evidence": 54,
    "symbols": 54,
    "##ake": 54,
    "feeling": 54,
    "older": 54,
    "dimension": 54,
    "networking": 54,
    "oven": 54,
    "beautiful": 54,
    "marginal": 53,
    "hybrid": 53,
    "protecting": 53,
    "critics": 53,
    "##so": 53,
    "aquatic": 53,
    "mainstream": 53,
    "viewers": 53,
    "bench": 53,
    "##uta": 53,
    "told": 53,
    "advice": 53,
    "drop": 53,
    "themes": 53,
    "exciting": 53,
    "adapted": 53,
    "intent": 53,
    "boom": 53,
    "heads": 53,
    "likes": 53,
    "intrinsic": 53,
    "experiment": 53,
    "notably": 53,
    "capture": 53,
    "peak": 53,
    "##gling": 53,
    "span": 53,
    "##ora": 53,
    "ice": 53,
    "meaning": 53,
    "2020": 53,
    "house": 53,
    "exposed": 53,
    "script": 53,
    "##phe": 53,
    "panels": 53,
    "consultant": 53,
    "professor": 53,
    "cafe": 53,
    "##cam": 53,
    "recognizes": 53,
    "##ans": 53,
    "##ug": 53,
    "tight": 53,
    "extensive": 53,
    "rolling": 53,
    "##fari": 53,
    "##fully": 53,
    "combined": 53,
    "obstacle": 53,
    "##nent": 53,
    "theaters": 53,
    "##oe": 53,
    "catch": 52,
    "##play": 52,
    "reaction": 52,
    "##ptic": 52,
    "discussion": 52,
    "ps": 52,
    "survey": 52,
    "creek": 52,
    "schedules": 52,
    "institute": 52,
    "similarly": 52,
    "overwhelming": 52,
    "##lies": 52,
    "literature": 52,
    "announcement": 52,
    "sur": 52,
    "##fill": 52,
    "\u2018": 52,
    "knows": 52,
    "headlines": 52,
    "attendees": 52,
    "fuels": 52,
    "varied": 52,
    "dramatic": 52,
    "##cot": 52,
    "##ese": 52,
    "persistent": 52,
    "uncertain": 52,
    "tested": 52,
    "realized": 52,
    "theoretical": 52,
    "##mism": 52,
    "##air": 52,
    "meant": 52,
    "scent": 52,
    "19": 52,
    "hills": 52,
    "##zzling": 52,
    "stunning": 52,
    "##bble": 52,
    "##taking": 52,
    "##met": 52,
    "strain": 52,
    "analyst": 52,
    "tricks": 52,
    "addiction": 52,
    "faith": 52,
    "##az": 52,
    "##ord": 52,
    "ultimately": 52,
    "shown": 52,
    "##ite": 52,
    "condition": 52,
    "bite": 52,
    "##itude": 52,
    "exercises": 52,
    "favor": 52,
    "gear": 52,
    "##ching": 52,
    "poverty": 51,
    "stable": 51,
    "forced": 51,
    "tsunami": 51,
    "studio": 51,
    "engine": 51,
    "search": 51,
    "steady": 51,
    "##nar": 51,
    "published": 51,
    "boards": 51,
    "ago": 51,
    "gene": 51,
    "transparent": 51,
    "causing": 51,
    "grounded": 51,
    "tables": 51,
    "##smos": 51,
    "ideal": 51,
    "##economic": 51,
    "rhythmic": 51,
    "signal": 51,
    "##oring": 51,
    "salt": 51,
    "olive": 51,
    "##dr": 51,
    "##topia": 51,
    "recycled": 51,
    "position": 51,
    "shimmering": 51,
    "##pan": 51,
    "ultimate": 51,
    "##rica": 51,
    "retirement": 51,
    "paved": 51,
    "moves": 51,
    "##dated": 51,
    "canopy": 51,
    "rely": 51,
    "forth": 51,
    "##ction": 51,
    "interventions": 51,
    "versa": 51,
    "sensory": 51,
    "altering": 51,
    "ranging": 51,
    "invest": 51,
    "analyze": 51,
    "enable": 51,
    "climbing": 51,
    "##haven": 50,
    "##ime": 50,
    "##yd": 50,
    "electoral": 50,
    "son": 50,
    "##right": 50,
    "lands": 50,
    "showing": 50,
    "justice": 50,
    "##tones": 50,
    "##nia": 50,
    "##tam": 50,
    "affected": 50,
    "##aring": 50,
    "##lift": 50,
    "menu": 50,
    "cash": 50,
    "buzzing": 50,
    "##oast": 50,
    "nutrients": 50,
    "##lemma": 50,
    "suit": 50,
    "farmer": 50,
    "easy": 50,
    "##mmer": 50,
    "scientist": 50,
    "findings": 50,
    "##thin": 50,
    "shifted": 50,
    "##eli": 50,
    "mist": 50,
    "mysteries": 50,
    "responses": 50,
    "institution": 50,
    "clock": 50,
    "detect": 50,
    "computers": 50,
    "surveillance": 50,
    "planted": 50,
    "south": 50,
    "scar": 50,
    "##phere": 50,
    "theory": 50,
    "breeze": 50,
    "incredible": 50,
    "propelled": 50,
    "stated": 50,
    "flight": 50,
    "facade": 50,
    "valid": 50,
    "pathway": 50,
    "grant": 50,
    "flare": 50,
    "variety": 50,
    "9": 50,
    "genius": 50,
    "eternal": 50,
    "pieces": 50,
    "sourced": 50,
    "##rian": 50,
    "grains": 50,
    "##quito": 50,
    "##reshing": 50,
    "page": 50,
    "##rts": 50,
    "##quez": 49,
    "hurricane": 49,
    "##iu": 49,
    "##ych": 49,
    "protective": 49,
    "##hering": 49,
    "strike": 49,
    "option": 49,
    "currency": 49,
    "complete": 49,
    "##ndon": 49,
    "fierce": 49,
    "spending": 49,
    "##har": 49,
    "##ista": 49,
    "embedded": 49,
    "dire": 49,
    "card": 49,
    "##ence": 49,
    "resistance": 49,
    "undergone": 49,
    "joined": 49,
    "##lihood": 49,
    "statistics": 49,
    "beginnings": 49,
    "gateway": 49,
    "##forcing": 49,
    "surged": 49,
    "engines": 49,
    "##tory": 49,
    "participate": 49,
    "achievement": 49,
    "##pice": 49,
    "##end": 49,
    "intelligent": 49,
    "pie": 49,
    "hospital": 49,
    "king": 48,
    "oral": 48,
    "anchor": 48,
    "##rench": 48,
    "styles": 48,
    "##nes": 48,
    "herb": 48,
    "entity": 48,
    "duty": 48,
    "election": 48,
    "wanted": 48,
    "reports": 48,
    "dances": 48,
    "##lian": 48,
    "again": 48,
    "##cherous": 48,
    "lime": 48,
    "extreme": 48,
    "celebrates": 48,
    "##ologies": 48,
    "internal": 48,
    "breaks": 48,
    "discarded": 48,
    "save": 48,
    "##ishing": 48,
    "underway": 48,
    "lighthouse": 48,
    "coupled": 48,
    "structured": 48,
    "fiery": 48,
    "restaurant": 48,
    "believed": 48,
    "##ati": 48,
    "apparent": 48,
    "characters": 48,
    "extended": 48,
    "allow": 48,
    "firmly": 48,
    "voyage": 48,
    "downtown": 48,
    "ties": 48,
    "unlikely": 48,
    "battling": 48,
    "##ations": 48,
    "bra": 48,
    "tastes": 48,
    "record": 48,
    "style": 48,
    "##ard": 48,
    "equality": 48,
    "##rp": 48,
    "highly": 48,
    "pact": 47,
    "emphasize": 47,
    "union": 47,
    "evergreen": 47,
    "alley": 47,
    "##pate": 47,
    "threatened": 47,
    "welfare": 47,
    "authority": 47,
    "##cultural": 47,
    "animal": 47,
    "beat": 47,
    "ally": 47,
    "##ik": 47,
    "##elling": 47,
    "trails": 47,
    "##des": 47,
    "##ought": 47,
    "##sist": 47,
    "invention": 47,
    "##lance": 47,
    "spoke": 47,
    "glass": 47,
    "declaration": 47,
    "cultivated": 47,
    "warfare": 47,
    "miss": 47,
    "knit": 47,
    "participating": 47,
    "library": 47,
    "manner": 47,
    "bat": 47,
    "adopted": 47,
    "telling": 47,
    "plates": 47,
    "bottom": 47,
    "##ins": 47,
    "harvesting": 47,
    "upgrade": 47,
    "twin": 47,
    "glimpse": 47,
    "##down": 47,
    "bamboo": 47,
    "##gs": 47,
    "bias": 47,
    "warning": 47,
    "drawn": 47,
    "stake": 47,
    "populace": 47,
    "##mine": 47,
    "involving": 47,
    "appetite": 47,
    "achievements": 47,
    "odds": 47,
    "40": 47,
    "##ret": 47,
    "coast": 47,
    "heightened": 47,
    "invites": 47,
    "ya": 46,
    "##let": 46,
    "citizenship": 46,
    "##ero": 46,
    "##gro": 46,
    "##port": 46,
    "##ote": 46,
    "dig": 46,
    "solidarity": 46,
    "sorrow": 46,
    "pop": 46,
    "##nning": 46,
    "alleviate": 46,
    "additional": 46,
    "corporation": 46,
    "migration": 46,
    "standardized": 46,
    "influential": 46,
    "combining": 46,
    "pushed": 46,
    "himself": 46,
    "carving": 46,
    "examples": 46,
    "iron": 46,
    "elder": 46,
    "usage": 46,
    "counseling": 46,
    "trying": 46,
    "##wed": 46,
    "activists": 46,
    "conducted": 46,
    "bore": 46,
    "patrons": 46,
    "volumes": 46,
    "##ved": 46,
    "establishments": 46,
    "simulation": 46,
    "detailed": 46,
    "improvements": 46,
    "forests": 46,
    "grip": 46,
    "decided": 46,
    "##bot": 46,
    "##ures": 46,
    "distributed": 46,
    "via": 46,
    "sheer": 46,
    "immense": 46,
    "pond": 46,
    "island": 46,
    "resulting": 46,
    "court": 46,
    "flames": 46,
    "smile": 46,
    "handle": 46,
    "##ots": 46,
    "shapes": 46,
    "addressed": 46,
    "##oa": 46,
    "struck": 45,
    "woods": 45,
    "reserved": 45,
    "hour": 45,
    "voter": 45,
    "sees": 45,
    "fluid": 45,
    "none": 45,
    "##ji": 45,
    "##fication": 45,
    "melodies": 45,
    "##birth": 45,
    "thirst": 45,
    "thin": 45,
    "straightforward": 45,
    "independence": 45,
    "enables": 45,
    "voters": 45,
    "##lia": 45,
    "yes": 45,
    "bee": 45,
    "distress": 45,
    "respective": 45,
    "intensity": 45,
    "opens": 45,
    "##cca": 45,
    "toll": 45,
    "stones": 45,
    "scrutiny": 45,
    "##tail": 45,
    "toxic": 45,
    "items": 45,
    "##ied": 45,
    "rewards": 45,
    "perfectly": 45,
    "##shes": 45,
    "attempts": 45,
    "dared": 45,
    "##za": 45,
    "##rod": 45,
    "helps": 45,
    "defines": 45,
    "##craft": 45,
    "argue": 45,
    "elders": 45,
    "song": 45,
    "importantly": 45,
    "ride": 45,
    "##warm": 45,
    "##ele": 45,
    "mood": 45,
    "upgrades": 45,
    "agency": 45,
    "gains": 45,
    "regime": 45,
    "##media": 45,
    "signaling": 45,
    "pit": 45,
    "defining": 45,
    "##lla": 45,
    "functional": 45,
    "contributes": 45,
    "lakes": 45,
    "outside": 45,
    "maker": 45,
    "textile": 44,
    "tobacco": 44,
    "crime": 44,
    "##lm": 44,
    "reaches": 44,
    "##rth": 44,
    "rig": 44,
    "##cer": 44,
    "disposal": 44,
    "##hao": 44,
    "##own": 44,
    "bounds": 44,
    "regulation": 44,
    "##ded": 44,
    "charting": 44,
    "temperature": 44,
    "##powered": 44,
    "inevitable": 44,
    "abundant": 44,
    "unified": 44,
    "districts": 44,
    "##ola": 44,
    "##zer": 44,
    "ensured": 44,
    "prepare": 44,
    "influx": 44,
    "glory": 44,
    "celebrations": 44,
    "pepper": 44,
    "##rest": 44,
    "measured": 44,
    "profile": 44,
    "outs": 44,
    "mutual": 44,
    "18": 44,
    "charming": 44,
    "##list": 44,
    "##biotic": 44,
    "preventing": 44,
    "##bank": 44,
    "battles": 44,
    "recruitment": 44,
    "strengths": 44,
    "##rance": 44,
    "fellow": 44,
    "##tility": 44,
    "consistent": 44,
    "##ha": 44,
    "##uin": 44,
    "banking": 44,
    "foreign": 43,
    "remarked": 43,
    "cars": 43,
    "disciplines": 43,
    "bird": 43,
    "autonomy": 43,
    "dense": 43,
    "##ds": 43,
    "electronics": 43,
    "##nett": 43,
    "actors": 43,
    "fell": 43,
    "##tem": 43,
    "peculiar": 43,
    "cycles": 43,
    "creates": 43,
    "##win": 43,
    "\u4eba": 43,
    "retire": 43,
    "##ache": 43,
    "coordination": 43,
    "navigation": 43,
    "jar": 43,
    "##dic": 43,
    "blurred": 43,
    "##look": 43,
    "##yna": 43,
    "manager": 43,
    "##gle": 43,
    "accommodate": 43,
    "islands": 43,
    "##rying": 43,
    "rock": 43,
    "round": 43,
    "mechanism": 43,
    "##box": 43,
    "shores": 43,
    "brewing": 43,
    "anticipated": 43,
    "alternatives": 43,
    "##dle": 43,
    "worth": 43,
    "reinforce": 43,
    "perform": 43,
    "plunged": 43,
    "raise": 43,
    "guides": 43,
    "##romatic": 43,
    "analyzing": 43,
    "var": 43,
    "colleges": 43,
    "##tter": 43,
    "##rl": 43,
    "coming": 43,
    "shattered": 43,
    "uses": 43,
    "##rop": 43,
    "##rehension": 43,
    "injuries": 43,
    "sorting": 43,
    "architect": 43,
    "lasting": 43,
    "##imo": 43,
    "tender": 43,
    "computational": 43,
    "suburban": 43,
    "feet": 43,
    "lighting": 43,
    "##stone": 43,
    "##written": 43,
    "serious": 43,
    "visible": 43,
    "##tr": 43,
    "corn": 43,
    "##old": 42,
    "##tok": 42,
    "##words": 42,
    "certain": 42,
    "##ynth": 42,
    "portal": 42,
    "targets": 42,
    "hasn": 42,
    "##bat": 42,
    "raises": 42,
    "##ep": 42,
    "reminiscent": 42,
    "climb": 42,
    "invitation": 42,
    "##aine": 42,
    "##aris": 42,
    "streams": 42,
    "properties": 42,
    "##fra": 42,
    "amalgamation": 42,
    "privilege": 42,
    "##fect": 42,
    "glaring": 42,
    "gallery": 42,
    "won": 42,
    "departure": 42,
    "say": 42,
    "ll": 42,
    "##link": 42,
    "##vani": 42,
    "frustration": 42,
    "external": 42,
    "disabilities": 42,
    "##ographic": 42,
    "winning": 42,
    "testing": 42,
    "iconic": 42,
    "surroundings": 42,
    "subway": 42,
    "##ude": 42,
    "##cademia": 42,
    "going": 42,
    "proud": 42,
    "trajectory": 42,
    "engineers": 42,
    "challenged": 42,
    "##wall": 42,
    "unconventional": 42,
    "elaborate": 42,
    "envelope": 42,
    "competitors": 42,
    "helped": 42,
    "encounters": 42,
    "##mura": 41,
    "histories": 41,
    "##loc": 41,
    "carried": 41,
    "##rac": 41,
    "farms": 41,
    "##gets": 41,
    "##cie": 41,
    "arrival": 41,
    "203": 41,
    "springs": 41,
    "sphere": 41,
    "shock": 41,
    "##ile": 41,
    "##lton": 41,
    "communicate": 41,
    "intended": 41,
    "ransom": 41,
    "typically": 41,
    "##writing": 41,
    "##pped": 41,
    "teenagers": 41,
    "##tead": 41,
    "catering": 41,
    "##eda": 41,
    "translating": 41,
    "raising": 41,
    "##2": 41,
    "contracts": 41,
    "route": 41,
    "elevated": 41,
    "dominate": 41,
    "followed": 41,
    "rival": 41,
    "nights": 41,
    "assistance": 41,
    "colorful": 41,
    "flood": 41,
    "scan": 41,
    "convergence": 41,
    "rush": 41,
    "apple": 41,
    "drama": 41,
    "siege": 41,
    "bare": 41,
    "entirely": 41,
    "get": 41,
    "remained": 41,
    "sober": 41,
    "successfully": 41,
    "allocation": 41,
    "sugar": 41,
    "mixed": 41,
    "##sus": 41,
    "##osa": 41,
    "exploit": 41,
    "lively": 41,
    "circles": 41,
    "weak": 41,
    "approval": 41,
    "choosing": 41,
    "viable": 41,
    "abundance": 41,
    "distance": 41,
    "puzzle": 41,
    "den": 41,
    "##edar": 41,
    "\u65b0": 41,
    "spirituality": 41,
    "tend": 40,
    "##tta": 40,
    "circumstances": 40,
    "considering": 40,
    "##cture": 40,
    "influences": 40,
    "error": 40,
    "causes": 40,
    "counts": 40,
    "sway": 40,
    "encompassing": 40,
    "packaging": 40,
    "losing": 40,
    "trigger": 40,
    "##ida": 40,
    "joint": 40,
    "keeps": 40,
    "dash": 40,
    "spa": 40,
    "facility": 40,
    "##verse": 40,
    "finger": 40,
    "developers": 40,
    "developments": 40,
    "pose": 40,
    "hopeful": 40,
    "##bling": 40,
    "location": 40,
    "beneficial": 40,
    "##oto": 40,
    "satellite": 40,
    "##wa": 40,
    "posed": 40,
    "installations": 40,
    "virtually": 40,
    "final": 40,
    "enjoy": 40,
    "chemical": 40,
    "anchored": 40,
    "taught": 40,
    "animals": 40,
    "##\u00e9": 40,
    "soothing": 40,
    "##ss": 40,
    "albeit": 40,
    "##ared": 40,
    "##itive": 40,
    "discovering": 40,
    "occurred": 40,
    "average": 40,
    "##af": 40,
    "designer": 40,
    "bit": 40,
    "##ang": 40,
    "window": 40,
    "##cus": 40,
    "##pi": 40,
    "reactive": 40,
    "##venting": 40,
    "female": 40,
    "facilitated": 40,
    "junior": 40,
    "mold": 40,
    "sentiments": 40,
    "tip": 40,
    "rounded": 40,
    "##vin": 40,
    "##bridge": 39,
    "##fy": 39,
    "##ee": 39,
    "##ctic": 39,
    "fishing": 39,
    "direction": 39,
    "implement": 39,
    "meadow": 39,
    "fan": 39,
    "despair": 39,
    "perceive": 39,
    "rallied": 39,
    "##zation": 39,
    "cheer": 39,
    "county": 39,
    "port": 39,
    "gut": 39,
    "fighting": 39,
    "##hold": 39,
    "strict": 39,
    "establish": 39,
    "##ws": 39,
    "##wright": 39,
    "##eur": 39,
    "daring": 39,
    "diner": 39,
    "attributed": 39,
    "##ux": 39,
    "##ale": 39,
    "lovers": 39,
    "questioning": 39,
    "##adia": 39,
    "##act": 39,
    "##ba": 39,
    "##scent": 39,
    "wall": 39,
    "pass": 39,
    "##ol": 39,
    "##gli": 39,
    "##ligent": 39,
    "patch": 39,
    "compared": 39,
    "construct": 39,
    "##xa": 39,
    "##pha": 39,
    "mountains": 39,
    "hushed": 39,
    "binds": 39,
    "digitally": 39,
    "##lor": 39,
    "subjects": 39,
    "listening": 39,
    "calling": 39,
    "24": 39,
    "kn": 39,
    "encompasses": 39,
    "uniform": 39,
    "plea": 39,
    "strengthening": 39,
    "wine": 39,
    "##ilia": 39,
    "appreciate": 39,
    "parent": 39,
    "host": 39,
    "##rel": 39,
    "##ept": 39,
    "remind": 39,
    "aged": 39,
    "tourism": 39,
    "responsibilities": 39,
    "finish": 39,
    "visions": 39,
    "##fine": 39,
    "##oken": 38,
    "weekend": 38,
    "##phone": 38,
    "##dra": 38,
    "expressions": 38,
    "overnight": 38,
    "pure": 38,
    "literary": 38,
    "assault": 38,
    "50": 38,
    "##ft": 38,
    "resolution": 38,
    "##sman": 38,
    "alignment": 38,
    "priority": 38,
    "dangers": 38,
    "fortified": 38,
    "##ya": 38,
    "spell": 38,
    "##lf": 38,
    "invasive": 38,
    "##gnetic": 38,
    "localized": 38,
    "researchers": 38,
    "##our": 38,
    "written": 38,
    "auto": 38,
    "changed": 38,
    "muscle": 38,
    "modernization": 38,
    "sporting": 38,
    "sponsorship": 38,
    "overcome": 38,
    "tactics": 38,
    "solitary": 38,
    "displacement": 38,
    "scenarios": 38,
    "picturesque": 38,
    "##lent": 38,
    "join": 38,
    "accelerated": 38,
    "##bound": 38,
    "ourselves": 38,
    "collaborate": 38,
    "##lge": 38,
    "##uddin": 38,
    "blocks": 38,
    "amongst": 38,
    "##ox": 38,
    "produced": 38,
    "nearly": 38,
    "easier": 38,
    "races": 38,
    "##nor": 38,
    "##ros": 38,
    "##icking": 38,
    "bay": 38,
    "bricks": 38,
    "##place": 38,
    "freelance": 38,
    "##ech": 38,
    "##ific": 38,
    "spanning": 38,
    "generated": 38,
    "##uds": 38,
    "##ense": 38,
    "ledge": 38,
    "pine": 38,
    "##ath": 38,
    "southern": 38,
    "##dled": 37,
    "##je": 37,
    "##nese": 37,
    "berries": 37,
    "storage": 37,
    "garage": 37,
    "film": 37,
    "!": 37,
    "##alia": 37,
    "vessels": 37,
    "##hesive": 37,
    "hail": 37,
    "messages": 37,
    "##cia": 37,
    "intro": 37,
    "attracting": 37,
    "##kind": 37,
    "sunlight": 37,
    "##at": 37,
    "\u751f": 37,
    "##sound": 37,
    "##break": 37,
    "lived": 37,
    "genes": 37,
    "continuity": 37,
    "##ana": 37,
    "formal": 37,
    "hardware": 37,
    "captures": 37,
    "tune": 37,
    "tidal": 37,
    "responding": 37,
    "compromised": 37,
    "solo": 37,
    "poses": 37,
    "##egan": 37,
    "medieval": 37,
    "discuss": 37,
    "##lena": 37,
    "curve": 37,
    "seminars": 37,
    "bill": 37,
    "centered": 37,
    "endorsement": 37,
    "exists": 37,
    "##rus": 37,
    "adjust": 37,
    "uniquely": 37,
    "##tions": 37,
    "##more": 37,
    "##current": 37,
    "broken": 37,
    "dimensions": 37,
    "invested": 37,
    "perceived": 37,
    "##que": 37,
    "##dent": 37,
    "limit": 37,
    "baking": 37,
    "released": 37,
    "##wart": 37,
    "hospitals": 37,
    "lesser": 37,
    "##ien": 37,
    "louder": 37,
    "##hers": 37,
    "##nary": 37,
    "installation": 37,
    "fiber": 37,
    "##oli": 37,
    "image": 37,
    "gears": 37,
    "threaten": 37,
    "weapon": 37,
    "makers": 37,
    "bus": 37,
    "apples": 37,
    "general": 37,
    "addresses": 37,
    "translates": 37,
    "exhibition": 37,
    "grove": 36,
    "sip": 36,
    "##lung": 36,
    "contact": 36,
    "particles": 36,
    "voting": 36,
    "seminar": 36,
    "dragon": 36,
    "employing": 36,
    "##gis": 36,
    "##vil": 36,
    "coal": 36,
    "rooms": 36,
    "risen": 36,
    "least": 36,
    "typical": 36,
    "subject": 36,
    "inequality": 36,
    "agents": 36,
    "disconnected": 36,
    "##ically": 36,
    "##evity": 36,
    "crossing": 36,
    "formed": 36,
    "couldn": 36,
    "therapeutic": 36,
    "metropolitan": 36,
    "plagued": 36,
    "tracks": 36,
    "caused": 36,
    "payment": 36,
    "exceptional": 36,
    "claim": 36,
    "fascination": 36,
    "ears": 36,
    "independent": 36,
    "ass": 36,
    "##iam": 36,
    "collectively": 36,
    "##ets": 36,
    "##bol": 36,
    "absorb": 36,
    "pledge": 36,
    "##turn": 36,
    "divides": 36,
    "binding": 36,
    "##acity": 36,
    "##au": 36,
    "locations": 36,
    "desert": 36,
    "##pid": 36,
    "##inate": 36,
    "desires": 36,
    "decisive": 36,
    "magical": 36,
    "timeline": 36,
    "packed": 36,
    "tutor": 36,
    "shoes": 36,
    "badge": 36,
    "conflict": 36,
    "historian": 36,
    "##ea": 36,
    "kids": 36,
    "hug": 36,
    "mountain": 36,
    "expose": 36,
    "##ko": 36,
    "##ics": 36,
    "##lly": 35,
    "##ham": 35,
    "##ennial": 35,
    "candidate": 35,
    "##ise": 35,
    "##hn": 35,
    "expect": 35,
    "##bodied": 35,
    "bees": 35,
    "blood": 35,
    "##grad": 35,
    "ambassador": 35,
    "usual": 35,
    "enabled": 35,
    "economist": 35,
    "##uang": 35,
    "##lica": 35,
    "steaming": 35,
    "hearth": 35,
    "granted": 35,
    "treatments": 35,
    "employed": 35,
    "either": 35,
    "efficacy": 35,
    "##dt": 35,
    "linguistic": 35,
    "##mpt": 35,
    "##get": 35,
    "##hu": 35,
    "skin": 35,
    "culturally": 35,
    "##bra": 35,
    "60": 35,
    "empty": 35,
    "##fall": 35,
    "##zzle": 35,
    "controlled": 35,
    "temporary": 35,
    "6": 35,
    "##ser": 35,
    "##got": 35,
    "instruction": 35,
    "tragic": 35,
    "offices": 35,
    "##rient": 35,
    "presenting": 35,
    "##nel": 35,
    "##hat": 35,
    "western": 35,
    "rare": 35,
    "grin": 35,
    "continuously": 35,
    "dinner": 35,
    "considerable": 35,
    "gray": 35,
    "careful": 35,
    "##lue": 35,
    "que": 35,
    "introduces": 35,
    "10th": 35,
    "##ini": 35,
    "catastrophic": 35,
    "##eller": 35,
    "stretched": 35,
    "motivation": 35,
    "gradually": 35,
    "charged": 35,
    "patience": 35,
    "accelerate": 35,
    "20th": 35,
    "expected": 35,
    "conducting": 35,
    "##pur": 35,
    "dependent": 35,
    "bookstore": 35,
    "##bb": 35,
    "##ori": 35,
    "laying": 35,
    "##vering": 35,
    "tomato": 35,
    "companion": 35,
    "token": 35,
    "rolled": 35,
    "##rooms": 35,
    "distinctive": 35,
    "burst": 35,
    "delicious": 35,
    "escape": 35,
    "welcoming": 35,
    "starts": 35,
    "versatile": 35,
    "##icides": 35,
    "dancing": 35,
    "train": 35,
    "automated": 35,
    "athletics": 35,
    "burn": 35,
    "printing": 35,
    "coral": 34,
    "##phon": 34,
    "genre": 34,
    "##voking": 34,
    "##ost": 34,
    "cinema": 34,
    "command": 34,
    "differences": 34,
    "landmarks": 34,
    "##uro": 34,
    "##ege": 34,
    "##den": 34,
    "draw": 34,
    "activist": 34,
    "##fire": 34,
    "pilot": 34,
    "musicians": 34,
    "##using": 34,
    "assembly": 34,
    "gate": 34,
    "economics": 34,
    "arc": 34,
    "plague": 34,
    "establishing": 34,
    "grasp": 34,
    "kissed": 34,
    "preserved": 34,
    "##chard": 34,
    "lineage": 34,
    "##mm": 34,
    "transformations": 34,
    "saying": 34,
    "acquisition": 34,
    "##cel": 34,
    "cables": 34,
    "mastering": 34,
    "optimal": 34,
    "##uss": 34,
    "chronicle": 34,
    "novelty": 34,
    "rebellion": 34,
    "loyal": 34,
    "capability": 34,
    "galleries": 34,
    "inside": 34,
    "speech": 34,
    "translate": 34,
    "readiness": 34,
    "flows": 34,
    "##bal": 34,
    "##ifice": 34,
    "struggled": 34,
    "conquer": 34,
    "drives": 34,
    "supplies": 34,
    "void": 34,
    "hometown": 34,
    "lean": 34,
    "jazz": 34,
    "##hes": 34,
    "##berg": 34,
    "producers": 34,
    "speeds": 34,
    "thoughtful": 34,
    "cease": 34,
    "react": 34,
    "ant": 34,
    "##made": 34,
    "cooked": 34,
    "thrust": 34,
    "##ered": 34,
    "observation": 34,
    "relaxation": 34,
    "read": 34,
    "23": 34,
    "stereotypes": 34,
    "tin": 34,
    "cycling": 33,
    "theme": 33,
    "consequence": 33,
    "##hora": 33,
    "detail": 33,
    "##brook": 33,
    "cope": 33,
    "erosion": 33,
    "households": 33,
    "exquisite": 33,
    "noble": 33,
    "##flow": 33,
    "forum": 33,
    "clothing": 33,
    "precisely": 33,
    "scales": 33,
    "biological": 33,
    "##sett": 33,
    "dare": 33,
    "frost": 33,
    "sail": 33,
    "trained": 33,
    "##claim": 33,
    "##nges": 33,
    "##mble": 33,
    "##iable": 33,
    "impossible": 33,
    "ominous": 33,
    "grew": 33,
    "##phony": 33,
    "roll": 33,
    "triggered": 33,
    "symptoms": 33,
    "##pet": 33,
    "proposal": 33,
    "dependence": 33,
    "instruments": 33,
    "influenced": 33,
    "impending": 33,
    "clinic": 33,
    "equation": 33,
    "##sions": 33,
    "##igor": 33,
    "##ges": 33,
    "pursuits": 33,
    "replacing": 33,
    "deserves": 33,
    "sprint": 33,
    "##ka": 33,
    "atmospheric": 33,
    "contamination": 33,
    "ink": 33,
    "##troke": 33,
    "ball": 33,
    "mimic": 33,
    "freshly": 33,
    "targeting": 33,
    "seated": 33,
    "spur": 33,
    "rule": 33,
    "listen": 33,
    "hike": 33,
    "clinics": 33,
    "welcomed": 33,
    "neon": 33,
    "##hou": 33,
    "altered": 33,
    "forget": 33,
    "scholarships": 33,
    "involve": 33,
    "inform": 33,
    "closely": 33,
    "demonstrate": 33,
    "proponent": 33,
    "drastically": 33,
    "fog": 33,
    "destination": 33,
    "manual": 33,
    "fired": 33,
    "vocal": 33,
    "precise": 33,
    "mine": 33,
    "sustaining": 33,
    "cuts": 33,
    "##ster": 33,
    "masters": 32,
    "##care": 32,
    "cab": 32,
    "##herence": 32,
    "tied": 32,
    "yield": 32,
    "##mentation": 32,
    "##cin": 32,
    "adolescent": 32,
    "chambers": 32,
    "21": 32,
    "##fer": 32,
    "humorous": 32,
    "fantastic": 32,
    "##erman": 32,
    "##io": 32,
    "deployment": 32,
    "falls": 32,
    "##ography": 32,
    "diving": 32,
    "units": 32,
    "demonstration": 32,
    "coverage": 32,
    "##ilo": 32,
    "acceptance": 32,
    "immediately": 32,
    "lightning": 32,
    "fade": 32,
    "##bert": 32,
    "venues": 32,
    "##sive": 32,
    "##ibly": 32,
    "availability": 32,
    "##ler": 32,
    "spine": 32,
    "##tick": 32,
    "cases": 32,
    "laboratory": 32,
    "proper": 32,
    "facts": 32,
    "panel": 32,
    "##watch": 32,
    "##ancy": 32,
    "claims": 32,
    "decrease": 32,
    "##rro": 32,
    "constantly": 32,
    "underlying": 32,
    "##ll": 32,
    "##poli": 32,
    "sustained": 32,
    "minded": 32,
    "##ulating": 32,
    "##cott": 32,
    "links": 32,
    "chart": 32,
    "nightmare": 32,
    "solve": 32,
    "surprising": 32,
    "topic": 32,
    "strikes": 32,
    "casual": 32,
    "worked": 32,
    "attract": 32,
    "laude": 32,
    "##pot": 32,
    "acknowledged": 32,
    "backyard": 32,
    "##dre": 32,
    "thick": 32,
    "relying": 32,
    "guard": 32,
    "crop": 32,
    "shadowy": 32,
    "der": 32,
    "replace": 32,
    "details": 32,
    "brilliant": 32,
    "##note": 32,
    "##pled": 32,
    "perfection": 32,
    "##formation": 32,
    "grandmother": 32,
    "express": 32,
    "yields": 32,
    "hear": 32,
    "mantle": 32,
    "explored": 32,
    "focuses": 32,
    "##uate": 32,
    "##chia": 32,
    "alert": 32,
    "combination": 32,
    "enemy": 32,
    "anyone": 32,
    "ventured": 32,
    "languages": 32,
    "worker": 32,
    "ear": 32,
    "fragile": 32,
    "email": 32,
    "salad": 32,
    "##nie": 32,
    "##ritable": 32,
    "parking": 32,
    "##q": 32,
    "maritime": 32,
    "deemed": 32,
    "placing": 32,
    "realizing": 32,
    "##nan": 32,
    "##aia": 32,
    "author": 32,
    "measurement": 32,
    "contribution": 32,
    "\u4e2d": 32,
    "##ones": 31,
    "brightly": 31,
    "##life": 31,
    "##mon": 31,
    "thunder": 31,
    "gleaming": 31,
    "##ota": 31,
    "mushroom": 31,
    "##aged": 31,
    "economically": 31,
    "venue": 31,
    "customs": 31,
    "converting": 31,
    "aligned": 31,
    "chaotic": 31,
    "##hic": 31,
    "govern": 31,
    "##tation": 31,
    "adventures": 31,
    "edible": 31,
    "stranded": 31,
    "courts": 31,
    "theatre": 31,
    "emotion": 31,
    "tucked": 31,
    "allies": 31,
    "selection": 31,
    "profits": 31,
    "filling": 31,
    "ripe": 31,
    "site": 31,
    "wilderness": 31,
    "wheel": 31,
    "payments": 31,
    "##fare": 31,
    "terrestrial": 31,
    "##making": 31,
    "lure": 31,
    "##sch": 31,
    "minimal": 31,
    "##ick": 31,
    "bike": 31,
    "##mar": 31,
    "##aka": 31,
    "exchanges": 31,
    "rotation": 31,
    "gave": 31,
    "serpent": 31,
    "infectious": 31,
    "extending": 31,
    "sailing": 31,
    "gift": 31,
    "##yn": 31,
    "acute": 31,
    "frequent": 31,
    "##logist": 31,
    "##ructural": 31,
    "six": 31,
    "titled": 31,
    "##dence": 31,
    "fundraising": 31,
    "##vice": 31,
    "square": 31,
    "stresses": 31,
    "outdoors": 31,
    "transmission": 31,
    "flora": 31,
    "evaluation": 31,
    "swap": 31,
    "vote": 31,
    "trains": 31,
    "startling": 31,
    "beating": 31,
    "widely": 31,
    "##ched": 31,
    "commented": 31,
    "strides": 31,
    "veteran": 31,
    "gently": 31,
    "illness": 31,
    "diabetes": 31,
    "##stra": 31,
    "interrupt": 31,
    "favorite": 31,
    "warrior": 31,
    "##eval": 31,
    "##mulating": 31,
    "circular": 31,
    "##oss": 31,
    "combines": 31,
    "0": 31,
    "##ncing": 31,
    "patches": 31,
    "##but": 31,
    "fork": 31,
    "pump": 31,
    "##hel": 31,
    "coaching": 31,
    "##hack": 31,
    "##rious": 31,
    "induced": 31,
    "##iculate": 31,
    "appealing": 31,
    "##low": 30,
    "##\u0430": 30,
    "##gal": 30,
    "magnet": 30,
    "##hta": 30,
    "joining": 30,
    "mounting": 30,
    "foe": 30,
    "timing": 30,
    "cool": 30,
    "##dor": 30,
    "lunar": 30,
    "consume": 30,
    "shoulder": 30,
    "specializing": 30,
    "sleek": 30,
    "planned": 30,
    "fossil": 30,
    "demanded": 30,
    "libraries": 30,
    "conscience": 30,
    "##rant": 30,
    "backed": 30,
    "##gra": 30,
    "channel": 30,
    "legendary": 30,
    "behaviors": 30,
    "declared": 30,
    "urging": 30,
    "##aver": 30,
    "##gus": 30,
    "designing": 30,
    "clouds": 30,
    "##test": 30,
    "ensemble": 30,
    "##ud": 30,
    "retired": 30,
    "ignored": 30,
    "youthful": 30,
    "competitions": 30,
    "##ygiene": 30,
    "##lades": 30,
    "weekly": 30,
    "##ioned": 30,
    "perpetual": 30,
    "border": 30,
    "advantages": 30,
    "ambitions": 30,
    "rigid": 30,
    "positions": 30,
    "##ada": 30,
    "##uant": 30,
    "##tour": 30,
    "##sta": 30,
    "delays": 30,
    "destruction": 30,
    "recommendations": 30,
    "loop": 30,
    "parental": 30,
    "##ja": 30,
    "##rona": 30,
    "agreements": 30,
    "draws": 30,
    "##rail": 30,
    "##hin": 30,
    "rises": 30,
    "client": 30,
    "devastating": 30,
    "notorious": 30,
    "scope": 30,
    "agencies": 30,
    "crew": 30,
    "mechanics": 30,
    "runners": 30,
    "##ado": 30,
    "##ego": 30,
    "list": 30,
    "unto": 30,
    "likely": 30,
    "asset": 30,
    "##dating": 30,
    "roar": 30,
    "nationwide": 30,
    "comforting": 30,
    "##ove": 30,
    "crust": 30,
    "kin": 30,
    "exposure": 30,
    "optimization": 30,
    "centralized": 30,
    "universities": 30,
    "##rga": 30,
    "sauce": 30,
    "##vance": 30,
    "##ach": 30,
    "##raphic": 29,
    "disorders": 29,
    "infinite": 29,
    "fans": 29,
    "devoid": 29,
    "layered": 29,
    "##spect": 29,
    "wrong": 29,
    "arrived": 29,
    "upcoming": 29,
    "flip": 29,
    "images": 29,
    "##are": 29,
    "##ught": 29,
    "whistle": 29,
    "news": 29,
    "homage": 29,
    "male": 29,
    "##mini": 29,
    "prices": 29,
    "avid": 29,
    "operates": 29,
    "##bri": 29,
    "##rlin": 29,
    "##sea": 29,
    "playful": 29,
    "rid": 29,
    "morale": 29,
    "addition": 29,
    "confidential": 29,
    "pier": 29,
    "##rem": 29,
    "interface": 29,
    "degree": 29,
    "##cci": 29,
    "purchase": 29,
    "volume": 29,
    "##las": 29,
    "##vert": 29,
    "curtains": 29,
    "retreat": 29,
    "##rle": 29,
    "melodic": 29,
    "##ela": 29,
    "territory": 29,
    "trip": 29,
    "boots": 29,
    "backup": 29,
    "##ras": 29,
    "##ule": 29,
    "##lands": 29,
    "association": 29,
    "vacuum": 29,
    "steal": 29,
    "attracted": 29,
    "choose": 29,
    "wrath": 29,
    "collapse": 29,
    "delivering": 29,
    "station": 29,
    "restaurants": 29,
    "##fied": 29,
    "adrenaline": 29,
    "##ole": 29,
    "preserves": 29,
    "scholars": 29,
    "##ented": 29,
    "plot": 29,
    "alter": 29,
    "##lier": 29,
    "kept": 29,
    "bid": 29,
    "aids": 29,
    "turmoil": 29,
    "busy": 29,
    "##ulent": 29,
    "contributed": 29,
    "##sen": 29,
    "continued": 29,
    "##iating": 29,
    "grows": 29,
    "segment": 29,
    "##gic": 29,
    "tension": 29,
    "worn": 29,
    "review": 29,
    "##well": 29,
    "prey": 29,
    "shoulders": 29,
    "##rab": 29,
    "##ering": 29,
    "minimum": 29,
    "##oon": 29,
    "hunger": 29,
    "##tun": 29,
    "##pool": 29,
    "viewed": 29,
    "##mind": 29,
    "progression": 29,
    "administrative": 29,
    "execution": 29,
    "functionality": 29,
    "neo": 29,
    "museum": 29,
    "massage": 28,
    "lending": 28,
    "##lizzard": 28,
    "affair": 28,
    "##pack": 28,
    "minute": 28,
    "##ential": 28,
    "chemicals": 28,
    "drill": 28,
    "arrangements": 28,
    "##ination": 28,
    "strokes": 28,
    "##bles": 28,
    "interdisciplinary": 28,
    "thoughts": 28,
    "knight": 28,
    "blind": 28,
    "discussed": 28,
    "fingers": 28,
    "garnered": 28,
    "attempt": 28,
    "civil": 28,
    "dead": 28,
    "##onized": 28,
    "greatest": 28,
    "presentation": 28,
    "anymore": 28,
    "hiring": 28,
    "curse": 28,
    "afternoon": 28,
    "proposition": 28,
    "robin": 28,
    "aerial": 28,
    "##ilize": 28,
    "##lect": 28,
    "suppliers": 28,
    "notice": 28,
    "estimated": 28,
    "multinational": 28,
    "##ately": 28,
    "expressed": 28,
    "modest": 28,
    "childhood": 28,
    "watching": 28,
    "##nife": 28,
    "brands": 28,
    "exhibit": 28,
    "spans": 28,
    "handling": 28,
    "wander": 28,
    "financially": 28,
    "concerned": 28,
    "##ckers": 28,
    "organizing": 28,
    "ghosts": 28,
    "##neck": 28,
    "amount": 28,
    "ushered": 28,
    "##bre": 28,
    "##encies": 28,
    "##ten": 28,
    "singular": 28,
    "thorough": 28,
    "##eria": 28,
    "runs": 28,
    "primarily": 28,
    "convened": 28,
    "fringe": 28,
    "tiny": 28,
    "teaches": 28,
    "\u529b": 28,
    "proliferation": 28,
    "margins": 28,
    "##gas": 28,
    "sunrise": 28,
    "conduct": 28,
    "coordinated": 28,
    "bears": 28,
    "artifacts": 28,
    "##tment": 28,
    "eagerly": 28,
    "##rricular": 28,
    "##abe": 28,
    "functions": 28,
    "confluence": 28,
    "##mas": 28,
    "departments": 28,
    "precedent": 28,
    "monetary": 28,
    "crack": 28,
    "ignore": 28,
    "paradise": 28,
    "boot": 28,
    "mercy": 28,
    "dragons": 27,
    "##ov": 27,
    "charging": 27,
    "chamber": 27,
    "desk": 27,
    "gives": 27,
    "viral": 27,
    "passengers": 27,
    "performing": 27,
    "loved": 27,
    "fines": 27,
    "inauguration": 27,
    "slowly": 27,
    "chase": 27,
    "##ceptive": 27,
    "cancer": 27,
    "notions": 27,
    "thing": 27,
    "disturbance": 27,
    "restoring": 27,
    "cm": 27,
    "lung": 27,
    "emerald": 27,
    "taxes": 27,
    "cheese": 27,
    "domestic": 27,
    "managers": 27,
    "rational": 27,
    "highways": 27,
    "##cted": 27,
    "vine": 27,
    "##iance": 27,
    "outcome": 27,
    "cards": 27,
    "##fle": 27,
    "##ija": 27,
    "clever": 27,
    "brown": 27,
    "score": 27,
    "##sent": 27,
    "tandem": 27,
    "shone": 27,
    "beautifully": 27,
    "earnest": 27,
    "breeding": 27,
    "smoke": 27,
    "hopes": 27,
    "dear": 27,
    "##late": 27,
    "leisure": 27,
    "##heart": 27,
    "##idge": 27,
    "sturdy": 27,
    "cover": 27,
    "radio": 27,
    "laptop": 27,
    "destiny": 27,
    "recounts": 27,
    "anything": 27,
    "sensation": 27,
    "although": 27,
    "##rated": 27,
    "##rch": 27,
    "math": 27,
    "##marks": 27,
    "dormant": 27,
    "teens": 27,
    "sweat": 27,
    "topics": 27,
    "conviction": 27,
    "shelves": 27,
    "preference": 27,
    "administrators": 27,
    "epidemic": 27,
    "regarding": 27,
    "##lers": 27,
    "productive": 27,
    "spiral": 27,
    "stretch": 27,
    "collaborating": 27,
    "observer": 27,
    "resulted": 27,
    "received": 27,
    "mandatory": 27,
    "cup": 27,
    "ballet": 27,
    "generate": 27,
    "bits": 27,
    "tests": 27,
    "##ption": 27,
    "someone": 27,
    "3rd": 27,
    "clash": 27,
    "##thy": 27,
    "##mized": 27,
    "##ger": 27,
    "casts": 27,
    "footsteps": 27,
    "marries": 27,
    "gates": 27,
    "emails": 27,
    "##hed": 27,
    "physically": 27,
    "selling": 27,
    "mode": 27,
    "learns": 27,
    "barren": 27,
    "##aker": 27,
    "dough": 27,
    "##uth": 27,
    "pedestrian": 27,
    "poetic": 27,
    "##ially": 27,
    "chosen": 27,
    "rehabilitation": 27,
    "##ject": 27,
    "officers": 27,
    "##nz": 26,
    "vendors": 26,
    "##burgh": 26,
    "critically": 26,
    "hosting": 26,
    "nest": 26,
    "##urs": 26,
    "pitch": 26,
    "astronaut": 26,
    "##don": 26,
    "##vale": 26,
    "resistant": 26,
    "intentions": 26,
    "spoken": 26,
    "included": 26,
    "##tant": 26,
    "##sla": 26,
    "theories": 26,
    "possibility": 26,
    "treat": 26,
    "marred": 26,
    "treated": 26,
    "provider": 26,
    "difficult": 26,
    "unable": 26,
    "governmental": 26,
    "fulfill": 26,
    "##eit": 26,
    "smoking": 26,
    "##weet": 26,
    "##sville": 26,
    "##ingly": 26,
    "##wth": 26,
    "linear": 26,
    "strategically": 26,
    "##nath": 26,
    "travelers": 26,
    "torch": 26,
    "##fuse": 26,
    "weren": 26,
    "surviving": 26,
    "driver": 26,
    "peaceful": 26,
    "essentially": 26,
    "fantasy": 26,
    "documents": 26,
    "fauna": 26,
    "spike": 26,
    "companions": 26,
    "##wark": 26,
    "origin": 26,
    "##loat": 26,
    "unlocked": 26,
    "##backs": 26,
    "constituents": 26,
    "suggests": 26,
    "200": 26,
    "##sis": 26,
    "organizers": 26,
    "officially": 26,
    "ships": 26,
    "##gence": 26,
    "fortune": 26,
    "encountered": 26,
    "ray": 26,
    "update": 26,
    "##lat": 26,
    "prominence": 26,
    "##ews": 26,
    "pioneered": 26,
    "positioned": 26,
    "##nology": 26,
    "press": 26,
    "friend": 26,
    "##ort": 26,
    "##sar": 26,
    "bottle": 26,
    "graceful": 26,
    "##position": 26,
    "##1": 26,
    "mighty": 26,
    "schedule": 26,
    "sum": 26,
    "fare": 26,
    "convert": 26,
    "labs": 26,
    "##rite": 26,
    "feelings": 26,
    "codes": 26,
    "proximity": 26,
    "ecology": 26,
    "##rup": 26,
    "tasked": 26,
    "relics": 26,
    "##falls": 26,
    "##lot": 26,
    "observes": 26,
    "##oes": 26,
    "chalk": 26,
    "##uti": 26,
    "employers": 26,
    "##tar": 26,
    "80": 26,
    "widening": 26,
    "ion": 26,
    "##olin": 26,
    "##j": 26,
    "refined": 26,
    "camp": 26,
    "##ture": 25,
    "##uating": 25,
    "##nish": 25,
    "remember": 25,
    "geography": 25,
    "coined": 25,
    "##tens": 25,
    "##jo": 25,
    "##vas": 25,
    "##mental": 25,
    "##rena": 25,
    "##ali": 25,
    "##git": 25,
    "##dridge": 25,
    "synthesis": 25,
    "views": 25,
    "steer": 25,
    "##ceipt": 25,
    "sails": 25,
    "cum": 25,
    "represented": 25,
    "extension": 25,
    "##nacle": 25,
    "pull": 25,
    "suite": 25,
    "organism": 25,
    "purchasing": 25,
    "##space": 25,
    "sovereignty": 25,
    "flower": 25,
    "##ub": 25,
    "compensation": 25,
    "##rising": 25,
    "##nation": 25,
    "calculated": 25,
    "tape": 25,
    "underground": 25,
    "rays": 25,
    "flicker": 25,
    "mount": 25,
    "shortage": 25,
    "metal": 25,
    "procedures": 25,
    "correct": 25,
    "##tery": 25,
    "vitamin": 25,
    "sidewalk": 25,
    "lion": 25,
    "deploy": 25,
    "lining": 25,
    "usually": 25,
    "surfaces": 25,
    "##imated": 25,
    "##vian": 25,
    "responded": 25,
    "chess": 25,
    "sculptures": 25,
    "vessel": 25,
    "satellites": 25,
    "profession": 25,
    "upward": 25,
    "cries": 25,
    "eclectic": 25,
    "towers": 25,
    "spreading": 25,
    "##vous": 25,
    "##tical": 25,
    "wit": 25,
    "##bio": 25,
    "trick": 25,
    "protocol": 25,
    "shut": 25,
    "avoid": 25,
    "charity": 25,
    "##ntly": 25,
    "agreement": 25,
    "frequency": 25,
    "magnitude": 25,
    "missing": 25,
    "geographic": 25,
    "structural": 25,
    "sorts": 25,
    "proudly": 25,
    "expenditure": 25,
    "definition": 25,
    "respects": 25,
    "transfer": 25,
    "portion": 25,
    "tablets": 25,
    "marrying": 25,
    "##ubi": 25,
    "compromise": 25,
    "vs": 25,
    "rage": 25,
    "cape": 25,
    "cracks": 25,
    "35": 25,
    "danger": 25,
    "wait": 25,
    "##some": 25,
    "##leaf": 25,
    "##ulate": 25,
    "mom": 25,
    "mutually": 25,
    "##ems": 25,
    "increases": 25,
    "visit": 25,
    "official": 25,
    "inadequate": 25,
    "##oke": 25,
    "splash": 25,
    "feed": 25,
    "##vigator": 25,
    "placed": 25,
    "lots": 25,
    "tuned": 25,
    "##rta": 25,
    "surrounded": 25,
    "prestigious": 25,
    "identified": 25,
    "returns": 25,
    "finely": 25,
    "captain": 25,
    "##rque": 25,
    "##sie": 25,
    "pedal": 24,
    "##foot": 24,
    "masses": 24,
    "humor": 24,
    "##lay": 24,
    "##uck": 24,
    "16": 24,
    "beast": 24,
    "##nat": 24,
    "relies": 24,
    "##ution": 24,
    "correlation": 24,
    "##ffer": 24,
    "##aunt": 24,
    "feeds": 24,
    "poetry": 24,
    "fading": 24,
    "supplement": 24,
    "retain": 24,
    "wrapped": 24,
    "clients": 24,
    "contract": 24,
    "eagle": 24,
    "realize": 24,
    "lanes": 24,
    "boasts": 24,
    "constellation": 24,
    "spun": 24,
    "sit": 24,
    "assess": 24,
    "utilities": 24,
    "##estive": 24,
    "considerations": 24,
    "verse": 24,
    "vent": 24,
    "generating": 24,
    "lock": 24,
    "therapist": 24,
    "scrap": 24,
    "shelter": 24,
    "##isse": 24,
    "accommodation": 24,
    "scroll": 24,
    "positioning": 24,
    "##yster": 24,
    "##nna": 24,
    "introduce": 24,
    "1st": 24,
    "ceremonies": 24,
    "12th": 24,
    "fail": 24,
    "dusty": 24,
    "crown": 24,
    "stuff": 24,
    "##uge": 24,
    "##gled": 24,
    "knights": 24,
    "measuring": 24,
    "##ridge": 24,
    "\u793e": 24,
    "##mart": 24,
    "steadily": 24,
    "##oo": 24,
    "roofs": 24,
    "oriented": 24,
    "bearing": 24,
    "##back": 24,
    "##lum": 24,
    "annually": 24,
    "shows": 24,
    "cement": 24,
    "occur": 24,
    "updated": 24,
    "wallet": 24,
    "##vasive": 24,
    "##state": 24,
    "##ail": 24,
    "watershed": 24,
    "##ios": 24,
    "##pad": 24,
    "incredibly": 24,
    "touching": 24,
    "undergo": 24,
    "debut": 24,
    "loomed": 24,
    "greenhouse": 24,
    "cultivation": 24,
    "arise": 24,
    "absorbing": 24,
    "harmful": 24,
    "curtain": 24,
    "##ines": 24,
    "##cting": 24,
    "trips": 24,
    "##ak": 24,
    "##ches": 24,
    "writing": 24,
    "psychology": 24,
    "racing": 24,
    "countryside": 24,
    "##top": 24,
    "committees": 24,
    "pairing": 24,
    "##unch": 24,
    "flock": 24,
    "##urable": 24,
    "\u5e74": 24,
    "format": 24,
    "##while": 24,
    "##umes": 24,
    "sprung": 24,
    "roof": 24,
    "reviews": 24,
    "mesh": 24,
    "heavens": 24,
    "footing": 24,
    "lent": 24,
    "kicks": 24,
    "##nk": 24,
    "##uations": 24,
    "resonance": 24,
    "indicating": 24,
    "observers": 24,
    "\u5fc3": 24,
    "##aro": 24,
    "cake": 24,
    "washing": 24,
    "hawk": 24,
    "ranks": 23,
    "tightly": 23,
    "reel": 23,
    "##ung": 23,
    "##plain": 23,
    "##war": 23,
    "earned": 23,
    "##eson": 23,
    "mural": 23,
    "##storm": 23,
    "ok": 23,
    "charter": 23,
    "proportions": 23,
    "##uted": 23,
    "##pted": 23,
    "intention": 23,
    "button": 23,
    "windows": 23,
    "divided": 23,
    "##rls": 23,
    "wells": 23,
    "##oor": 23,
    "murals": 23,
    "superintendent": 23,
    "silk": 23,
    "municipalities": 23,
    "honoring": 23,
    "##ere": 23,
    "angle": 23,
    "ashes": 23,
    "##rez": 23,
    "hosted": 23,
    "proclaimed": 23,
    "instrument": 23,
    "##hood": 23,
    "orchards": 23,
    "honey": 23,
    "##iscovered": 23,
    "##mir": 23,
    "prevalent": 23,
    "castle": 23,
    "strengthened": 23,
    "pronounced": 23,
    "ticket": 23,
    "idle": 23,
    "##cule": 23,
    "##ain": 23,
    "irony": 23,
    "##ste": 23,
    "listeners": 23,
    "tourists": 23,
    "##gar": 23,
    "##6": 23,
    "##lock": 23,
    "##rophe": 23,
    "select": 23,
    "##bil": 23,
    "viewer": 23,
    "##nted": 23,
    "movie": 23,
    "reminds": 23,
    "proteins": 23,
    "##pository": 23,
    "sensitivity": 23,
    "fees": 23,
    "advancing": 23,
    "velvet": 23,
    "spots": 23,
    "powers": 23,
    "##mb": 23,
    "##rid": 23,
    "##iki": 23,
    "barn": 23,
    "plots": 23,
    "surveys": 23,
    "tribute": 23,
    "protagonist": 23,
    "invite": 23,
    "rebuilding": 23,
    "scattered": 23,
    "grey": 23,
    "winding": 23,
    "superficial": 23,
    "philosophical": 23,
    "engages": 23,
    "##reak": 23,
    "matrix": 23,
    "##kill": 23,
    "paid": 23,
    "ascent": 23,
    "scarce": 23,
    "breakdown": 23,
    "##dar": 23,
    "recreational": 23,
    "##ndo": 23,
    "aviation": 23,
    "referred": 23,
    "revive": 23,
    "advance": 23,
    "fills": 23,
    "##besity": 23,
    "##dened": 23,
    "dominance": 23,
    "minority": 23,
    "crowded": 23,
    "readers": 23,
    "adjustments": 23,
    "##ilization": 23,
    "literal": 23,
    "equilibrium": 23,
    "welcome": 23,
    "turbulent": 23,
    "##ores": 23,
    "indie": 23,
    "##claiming": 23,
    "glowing": 23,
    "##hop": 23,
    "ramp": 23,
    "steamer": 23,
    "##nics": 23,
    "colony": 23,
    "maps": 23,
    "silhouette": 23,
    "##cologist": 23,
    "70": 23,
    "butter": 23,
    "happiness": 23,
    "advances": 23,
    "coordinator": 23,
    "flag": 23,
    "traced": 23,
    "productions": 23,
    "inhabit": 23,
    "methodology": 23,
    "type": 23,
    "##rill": 23,
    "los": 23,
    "vineyards": 23,
    "harp": 23,
    "stirred": 23,
    "assessing": 23,
    "##ltz": 23,
    "herbs": 23,
    "feather": 23,
    "tier": 23,
    "##uni": 23,
    "steam": 23,
    "offs": 23,
    "##nh": 22,
    "##\u043e": 22,
    "founders": 22,
    "warnings": 22,
    "battery": 22,
    "recounted": 22,
    "stumbled": 22,
    "sending": 22,
    "zoo": 22,
    "operating": 22,
    "invited": 22,
    "charts": 22,
    "sale": 22,
    "discover": 22,
    "instability": 22,
    "lingering": 22,
    "vaccine": 22,
    "##alo": 22,
    "##wirl": 22,
    "thrown": 22,
    "floor": 22,
    "weeping": 22,
    "dip": 22,
    "lantern": 22,
    "\u5927": 22,
    "victories": 22,
    "##houses": 22,
    "exotic": 22,
    "assert": 22,
    "radiation": 22,
    "barely": 22,
    "fingertips": 22,
    "factories": 22,
    "surprisingly": 22,
    "##iovascular": 22,
    "continent": 22,
    "schemes": 22,
    "prediction": 22,
    "pursue": 22,
    "##scence": 22,
    "streaming": 22,
    "##ality": 22,
    "##ulation": 22,
    "##dina": 22,
    "##rift": 22,
    "##chs": 22,
    "visually": 22,
    "##rst": 22,
    "##jection": 22,
    "##udi": 22,
    "failed": 22,
    "coin": 22,
    "exposing": 22,
    "weapons": 22,
    "release": 22,
    "amounts": 22,
    "11": 22,
    "susceptible": 22,
    "##pp": 22,
    "succeed": 22,
    "protector": 22,
    "##iber": 22,
    "##lastic": 22,
    "generous": 22,
    "protected": 22,
    "oxygen": 22,
    "theft": 22,
    "victim": 22,
    "formation": 22,
    "studios": 22,
    "##ava": 22,
    "largely": 22,
    "##moky": 22,
    "neighboring": 22,
    "deserve": 22,
    "abandoned": 22,
    "tag": 22,
    "supporters": 22,
    "runner": 22,
    "##izer": 22,
    "slice": 22,
    "##lan": 22,
    "lined": 22,
    "tones": 22,
    "muscles": 22,
    "furniture": 22,
    "##ix": 22,
    "haunted": 22,
    "##iva": 22,
    "refuge": 22,
    "representing": 22,
    "##ustic": 22,
    "closed": 22,
    "baked": 22,
    "##rat": 22,
    "confident": 22,
    "##aft": 22,
    "##dos": 22,
    "spurred": 22,
    "##nged": 22,
    "cop": 22,
    "bonding": 22,
    "##ige": 22,
    "##wai": 22,
    "##trusion": 22,
    "turbines": 22,
    "bet": 22,
    "hint": 22,
    "judgment": 22,
    "##nies": 22,
    "undoubtedly": 22,
    "aside": 22,
    "sinister": 22,
    "tone": 22,
    "dub": 22,
    "entertain": 22,
    "chasing": 22,
    "##evo": 22,
    "spreads": 22,
    "hallway": 22,
    "practitioners": 22,
    "builds": 22,
    "compound": 22,
    "##rina": 22,
    "floods": 22,
    "convenient": 22,
    "analysts": 22,
    "prompted": 22,
    "attending": 22,
    "##ests": 22,
    "dubbed": 22,
    "exception": 22,
    "indicators": 22,
    "sculpture": 22,
    "hiking": 21,
    "##onia": 21,
    "substances": 21,
    "dancers": 21,
    "trash": 21,
    "##scopic": 21,
    "loans": 21,
    "gravitational": 21,
    "dotted": 21,
    "##onies": 21,
    "thousand": 21,
    "##ydro": 21,
    "##rol": 21,
    "buffer": 21,
    "##room": 21,
    "random": 21,
    "output": 21,
    "solemn": 21,
    "youngest": 21,
    "scheme": 21,
    "##ited": 21,
    "kick": 21,
    "widened": 21,
    "songs": 21,
    "##byss": 21,
    "organisms": 21,
    "phrase": 21,
    "varieties": 21,
    "doubt": 21,
    "##oly": 21,
    "##riff": 21,
    "##encing": 21,
    "procession": 21,
    "##ety": 21,
    "swimming": 21,
    "profiles": 21,
    "blanket": 21,
    "\uff1a": 21,
    "heel": 21,
    "onset": 21,
    "types": 21,
    "deadline": 21,
    "nearby": 21,
    "fly": 21,
    "##agi": 21,
    "versus": 21,
    "testimony": 21,
    "employ": 21,
    "##lem": 21,
    "varying": 21,
    "##ltration": 21,
    "shaken": 21,
    "persona": 21,
    "tactical": 21,
    "rests": 21,
    "500": 21,
    "##eno": 21,
    "newcomer": 21,
    "feeding": 21,
    "laboratories": 21,
    "shortages": 21,
    "festivities": 21,
    "relations": 21,
    "reminded": 21,
    "hobby": 21,
    "talented": 21,
    "surprise": 21,
    "logic": 21,
    "energetic": 21,
    "bitter": 21,
    "directed": 21,
    "##lau": 21,
    "promotion": 21,
    "##rera": 21,
    "est": 21,
    "nucleus": 21,
    "playwright": 21,
    "input": 21,
    "previous": 21,
    "##ene": 21,
    "convey": 21,
    "cocktail": 21,
    "pilgrims": 21,
    "##rmon": 21,
    "alien": 21,
    "##dicate": 21,
    "deliberate": 21,
    "##tage": 21,
    "diagnostic": 21,
    "\u548c": 21,
    "newly": 21,
    "tunes": 21,
    "consuming": 21,
    "treating": 21,
    "consultation": 21,
    "latter": 21,
    "darker": 21,
    "unfamiliar": 21,
    "brains": 21,
    "labels": 21,
    "##gratory": 21,
    "uneven": 21,
    "##pose": 21,
    "gradual": 21,
    "elected": 21,
    "mathematics": 21,
    "traveling": 21,
    "swell": 21,
    "secured": 21,
    "throw": 21,
    "vol": 21,
    "##bian": 21,
    "##ops": 21,
    "fought": 21,
    "describes": 21,
    "formula": 21,
    "##bing": 21,
    "##rissa": 21,
    "##runch": 21,
    "dose": 21,
    "weaknesses": 21,
    "penetration": 21,
    "below": 21,
    "drought": 21,
    "65": 21,
    "irrigation": 21,
    "##olis": 21,
    "entered": 21,
    "cents": 21,
    "eliminating": 21,
    "putting": 21,
    "tapping": 21,
    "##ficiency": 21,
    "barrage": 21,
    "developer": 21,
    "scheduling": 21,
    "laden": 21,
    "##ology": 21,
    "liquor": 21,
    "laser": 21,
    "choreographed": 21,
    "##itis": 21,
    "##nova": 21,
    "##arate": 20,
    "signature": 20,
    "##dog": 20,
    "tears": 20,
    "##shi": 20,
    "##pol": 20,
    "composition": 20,
    "guarded": 20,
    "shook": 20,
    "##aca": 20,
    "bean": 20,
    "rice": 20,
    "loud": 20,
    "boulder": 20,
    "##olo": 20,
    "incorporates": 20,
    "tug": 20,
    "##pic": 20,
    "till": 20,
    "injustice": 20,
    "eruption": 20,
    "medication": 20,
    "##actic": 20,
    "##rov": 20,
    "##rky": 20,
    "rap": 20,
    "##fty": 20,
    "##ab": 20,
    "##wan": 20,
    "tours": 20,
    "##ular": 20,
    "consortium": 20,
    "narrow": 20,
    "organizational": 20,
    "##uation": 20,
    "collected": 20,
    "##ows": 20,
    "##ball": 20,
    "appear": 20,
    "fraud": 20,
    "shrink": 20,
    "##lles": 20,
    "##iving": 20,
    "##iness": 20,
    "astronomical": 20,
    "riding": 20,
    "flowing": 20,
    "cell": 20,
    "reactions": 20,
    "controversy": 20,
    "##gate": 20,
    "matches": 20,
    "researcher": 20,
    "argues": 20,
    "approximately": 20,
    "systematic": 20,
    "metals": 20,
    "tournaments": 20,
    "##ium": 20,
    "send": 20,
    "##oda": 20,
    "fitting": 20,
    "stimulate": 20,
    "biology": 20,
    "accustomed": 20,
    "minister": 20,
    "##lang": 20,
    "teen": 20,
    "centre": 20,
    "fled": 20,
    "confirmed": 20,
    "secondary": 20,
    "##thi": 20,
    "wing": 20,
    "##hai": 20,
    "temper": 20,
    "faint": 20,
    "inaugural": 20,
    "bypass": 20,
    "willing": 20,
    "permanent": 20,
    "ideals": 20,
    "empire": 20,
    "##vious": 20,
    "football": 20,
    "##gical": 20,
    "confusion": 20,
    "clearly": 20,
    "##code": 20,
    "bullying": 20,
    "##itating": 20,
    "checks": 20,
    "warming": 20,
    "sweetness": 20,
    "advocated": 20,
    "claimed": 20,
    "synthetic": 20,
    "destined": 20,
    "mud": 20,
    "distraction": 20,
    "##eel": 20,
    "happen": 20,
    "virtues": 20,
    "kicking": 20,
    "employs": 20,
    "finest": 20,
    "educated": 20,
    "19th": 20,
    "mused": 20,
    "universally": 20,
    "hazards": 20,
    "pattern": 20,
    "sole": 20,
    "safely": 20,
    "##lights": 20,
    "##pating": 20,
    "longing": 20,
    "earthquake": 20,
    "sweep": 20,
    "leak": 20,
    "earlier": 20,
    "##calated": 20,
    "affect": 20,
    "##person": 20,
    "##oman": 20,
    "edges": 20,
    "religious": 20,
    "lifetime": 20,
    "emotionally": 20,
    "scores": 20,
    "deal": 20,
    "quarter": 20,
    "severed": 20,
    "mad": 20,
    "prompting": 20,
    "spin": 20,
    "##ams": 20,
    "##mps": 20,
    "tough": 20,
    "##ker": 20,
    "volatile": 19,
    "kits": 19,
    "##tein": 19,
    "bang": 19,
    "##yo": 19,
    "manufacturers": 19,
    "revenues": 19,
    "revolves": 19,
    "ah": 19,
    "untouched": 19,
    "##pire": 19,
    "##aking": 19,
    "##rage": 19,
    "##cist": 19,
    "##burg": 19,
    "##grown": 19,
    "clinical": 19,
    "##holm": 19,
    "##ked": 19,
    "##rative": 19,
    "stretches": 19,
    "applause": 19,
    "disadvantage": 19,
    "suffering": 19,
    "##9": 19,
    "##iet": 19,
    "plasma": 19,
    "rivals": 19,
    "##\u00eda": 19,
    "clad": 19,
    "##gh": 19,
    "corruption": 19,
    "identification": 19,
    "chicken": 19,
    "northern": 19,
    "undertaking": 19,
    "photography": 19,
    "##chanted": 19,
    "factory": 19,
    "anthropologist": 19,
    "##mination": 19,
    "interfaces": 19,
    "credibility": 19,
    "maneuver": 19,
    "##7": 19,
    "dot": 19,
    "executed": 19,
    "dealing": 19,
    "aisle": 19,
    "conquest": 19,
    "rugged": 19,
    "version": 19,
    "pocket": 19,
    "getting": 19,
    "##llar": 19,
    "chord": 19,
    "steering": 19,
    "##ey": 19,
    "recorded": 19,
    "wouldn": 19,
    "##pard": 19,
    "attend": 19,
    "elephant": 19,
    "witnesses": 19,
    "perimeter": 19,
    "##wang": 19,
    "##tinent": 19,
    "icy": 19,
    "densely": 19,
    "reason": 19,
    "fox": 19,
    "##ase": 19,
    "domains": 19,
    "##anda": 19,
    "credit": 19,
    "vegetable": 19,
    "paired": 19,
    "##iz": 19,
    "focal": 19,
    "gesture": 19,
    "midnight": 19,
    "opera": 19,
    "livestock": 19,
    "height": 19,
    "colleagues": 19,
    "documented": 19,
    "displays": 19,
    "sire": 19,
    "decay": 19,
    "minutes": 19,
    "travels": 19,
    "handed": 19,
    "adjusting": 19,
    "bigger": 19,
    "##bit": 19,
    "accurate": 19,
    "devoted": 19,
    "17th": 19,
    "surgical": 19,
    "bleak": 19,
    "diver": 19,
    "cooling": 19,
    "couple": 19,
    "tons": 19,
    "donations": 19,
    "insufficient": 19,
    "possess": 19,
    "saturated": 19,
    "##keepers": 19,
    "approved": 19,
    "##lint": 19,
    "##aneous": 19,
    "crossed": 19,
    "##ah": 19,
    "friendship": 19,
    "residential": 19,
    "##edic": 19,
    "mapping": 19,
    "kicked": 19,
    "severity": 19,
    "radar": 19,
    "impacted": 19,
    "boxes": 19,
    "adequate": 19,
    "##och": 19,
    "smiles": 19,
    "recover": 19,
    "clay": 19,
    "clan": 19,
    "relied": 19,
    "blended": 19,
    "wheat": 19,
    "1970s": 19,
    "pursuing": 19,
    "spokesperson": 19,
    "experiments": 19,
    "##era": 19,
    "##ae": 19,
    "100": 19,
    "1990s": 19,
    "motivated": 19,
    "##hee": 19,
    "##mont": 19,
    "##liness": 19,
    "weary": 19,
    "cure": 19,
    "##cracy": 19,
    "critique": 19,
    "##eti": 19,
    "regularly": 19,
    "circuit": 19,
    "apply": 19,
    "programming": 19,
    "wounds": 19,
    "needle": 19,
    "retaining": 19,
    "150": 19,
    "follows": 19,
    "curb": 19,
    "lady": 19,
    "naturally": 19,
    "distances": 19,
    "##come": 19,
    "##coon": 19,
    "##tails": 19,
    "meadows": 19,
    "##lial": 19,
    "##jan": 19,
    "extent": 19,
    "pause": 19,
    "periods": 19,
    "supper": 19,
    "##rudence": 19,
    "binary": 19,
    "certification": 19,
    "kinetic": 19,
    "nomadic": 18,
    "##dge": 18,
    "vegetation": 18,
    "##ians": 18,
    "scenic": 18,
    "sights": 18,
    "cups": 18,
    "featured": 18,
    "fails": 18,
    "shades": 18,
    "##ships": 18,
    "librarian": 18,
    "genres": 18,
    "website": 18,
    "##unts": 18,
    "senator": 18,
    "category": 18,
    "mild": 18,
    "##cki": 18,
    "southeast": 18,
    "evolutionary": 18,
    "##mper": 18,
    "advisory": 18,
    "remotely": 18,
    "natives": 18,
    "respiratory": 18,
    "##rin": 18,
    "##ltry": 18,
    "devised": 18,
    "##anne": 18,
    "resurrection": 18,
    "count": 18,
    "##nea": 18,
    "##eth": 18,
    "collect": 18,
    "heated": 18,
    "holy": 18,
    "beans": 18,
    "frequently": 18,
    "##lu": 18,
    "paperwork": 18,
    "inventions": 18,
    "##keeping": 18,
    "##oppy": 18,
    "##tries": 18,
    "credits": 18,
    "consideration": 18,
    "##rsing": 18,
    "fixed": 18,
    "simpler": 18,
    "shy": 18,
    "swirling": 18,
    "interpret": 18,
    "incorporation": 18,
    "mouse": 18,
    "councils": 18,
    "cautious": 18,
    "guests": 18,
    "opinion": 18,
    "pumping": 18,
    "occurrence": 18,
    "provision": 18,
    "purchases": 18,
    "##inator": 18,
    "reclaimed": 18,
    "institutional": 18,
    "guarding": 18,
    "pulses": 18,
    "##tas": 18,
    "threshold": 18,
    "instances": 18,
    "diplomacy": 18,
    "biologist": 18,
    "strings": 18,
    "journal": 18,
    "##row": 18,
    "subsequent": 18,
    "victims": 18,
    "##vocative": 18,
    "army": 18,
    "gratitude": 18,
    "setup": 18,
    "unfortunate": 18,
    "buy": 18,
    "saves": 18,
    "stretching": 18,
    "scholar": 18,
    "drew": 18,
    "portrayal": 18,
    "marry": 18,
    "##ffe": 18,
    "reflections": 18,
    "##ings": 18,
    "hunt": 18,
    "##ead": 18,
    "##culture": 18,
    "flooding": 18,
    "consensus": 18,
    "economists": 18,
    "##atory": 18,
    "pencil": 18,
    "errors": 18,
    "regarded": 18,
    "closing": 18,
    "discussing": 18,
    "ask": 18,
    "corridor": 18,
    "agent": 18,
    "##ometer": 18,
    "visits": 18,
    "parade": 18,
    "##nking": 18,
    "##fires": 18,
    "currently": 18,
    "din": 18,
    "hay": 18,
    "##gg": 18,
    "##riz": 18,
    "etc": 18,
    "underwent": 18,
    "##emption": 18,
    "incorporated": 18,
    "finances": 18,
    "dignity": 18,
    "promoted": 18,
    "posing": 18,
    "cradle": 18,
    "##ony": 18,
    "stall": 18,
    "fortunate": 18,
    "##rew": 18,
    "posture": 18,
    "discrimination": 18,
    "catching": 18,
    "##born": 18,
    "mankind": 18,
    "executive": 18,
    "surf": 18,
    "##ctor": 18,
    "sits": 18,
    "yesterday": 18,
    "bravery": 18,
    "signaled": 18,
    "manipulation": 18,
    "##rde": 18,
    "wages": 18,
    "sin": 18,
    "evaluate": 18,
    "##mond": 18,
    "##block": 18,
    "chocolate": 18,
    "affluent": 17,
    "##ior": 17,
    "appears": 17,
    "burial": 17,
    "##athy": 17,
    "witch": 17,
    "equivalent": 17,
    "degrees": 17,
    "analytical": 17,
    "credentials": 17,
    "##itated": 17,
    "shields": 17,
    "automatically": 17,
    "##spective": 17,
    "soaked": 17,
    "qualities": 17,
    "straight": 17,
    "##rial": 17,
    "flights": 17,
    "die": 17,
    "populated": 17,
    "##bul": 17,
    "##piration": 17,
    "attributes": 17,
    "calming": 17,
    "##eg": 17,
    "moved": 17,
    "##curement": 17,
    "##\u00ed": 17,
    "switch": 17,
    "lend": 17,
    "refuses": 17,
    "circle": 17,
    "fulfilling": 17,
    "liberty": 17,
    "slogan": 17,
    "volcanic": 17,
    "##ente": 17,
    "closure": 17,
    "shuttle": 17,
    "##hani": 17,
    "item": 17,
    "observing": 17,
    "monitors": 17,
    "##pers": 17,
    "physics": 17,
    "warns": 17,
    "punch": 17,
    "##lean": 17,
    "honest": 17,
    "constructing": 17,
    "comments": 17,
    "acids": 17,
    "traits": 17,
    "wish": 17,
    "selecting": 17,
    "assist": 17,
    "termed": 17,
    "buzzed": 17,
    "unemployment": 17,
    "shade": 17,
    "excess": 17,
    "sunshine": 17,
    "##av": 17,
    "happens": 17,
    "observations": 17,
    "enjoying": 17,
    "anthem": 17,
    "##mill": 17,
    "beasts": 17,
    "##lair": 17,
    "vest": 17,
    "talking": 17,
    "promptly": 17,
    "backing": 17,
    "##por": 17,
    "commitments": 17,
    "uncommon": 17,
    "##rimal": 17,
    "anonymous": 17,
    "##iest": 17,
    "##mation": 17,
    "##bury": 17,
    "##hit": 17,
    "modular": 17,
    "##not": 17,
    "##edly": 17,
    "##fining": 17,
    "scrambled": 17,
    "surfaced": 17,
    "##trom": 17,
    "cream": 17,
    "##tting": 17,
    "transitions": 17,
    "additionally": 17,
    "vocational": 17,
    "##vention": 17,
    "##flower": 17,
    "##orama": 17,
    "##rot": 17,
    "colonial": 17,
    "spill": 17,
    "argued": 17,
    "##sper": 17,
    "destinations": 17,
    "compelled": 17,
    "##raw": 17,
    "##ode": 17,
    "subsidies": 17,
    "willingness": 17,
    "translated": 17,
    "##rates": 17,
    "lot": 17,
    "prize": 17,
    "maiden": 17,
    "personnel": 17,
    "spectacular": 17,
    "remembered": 17,
    "shattering": 17,
    "overhead": 17,
    "fix": 17,
    "cameras": 17,
    "covered": 17,
    "tragedy": 17,
    "##nial": 17,
    "delay": 17,
    "##nge": 17,
    "hangs": 17,
    "##ttes": 17,
    "strangers": 17,
    "denial": 17,
    "pasture": 17,
    "repairs": 17,
    "sage": 17,
    "bull": 17,
    "##rip": 17,
    "empirical": 17,
    "portrait": 17,
    "pavement": 17,
    "artwork": 17,
    "redundant": 17,
    "brows": 17,
    "##sect": 17,
    "##ag": 17,
    "heroic": 17,
    "freely": 17,
    "guest": 17,
    "servers": 17,
    "arises": 17,
    "purity": 17,
    "##minate": 17,
    "convention": 17,
    "##riya": 17,
    "##ended": 17,
    "##itative": 17,
    "fires": 17,
    "indoor": 17,
    "flowers": 17,
    "featuring": 17,
    "deployed": 17,
    "dating": 17,
    "constructed": 17,
    "mastered": 17,
    "##ison": 17,
    "guess": 17,
    "##dust": 17,
    "adaptations": 17,
    "surrounds": 17,
    "loving": 17,
    "liquid": 17,
    "processed": 17,
    "planetary": 17,
    "##bic": 16,
    "tornadoes": 16,
    "##crow": 16,
    "bites": 16,
    "##nds": 16,
    "cleaning": 16,
    "finally": 16,
    "##orse": 16,
    "chose": 16,
    "complementary": 16,
    "##wise": 16,
    "##bull": 16,
    "answered": 16,
    "pharmaceutical": 16,
    "president": 16,
    "concerning": 16,
    "oils": 16,
    "sailors": 16,
    "followers": 16,
    "##press": 16,
    "preferred": 16,
    "##awa": 16,
    "##\u0442": 16,
    "rear": 16,
    "monthly": 16,
    "shouldn": 16,
    "pulled": 16,
    "trial": 16,
    "##hs": 16,
    "##ymph": 16,
    "scare": 16,
    "##uilt": 16,
    "flourished": 16,
    "##lle": 16,
    "##eting": 16,
    "defend": 16,
    "nurse": 16,
    "marshal": 16,
    "##ders": 16,
    "seized": 16,
    "float": 16,
    "posts": 16,
    "##ngle": 16,
    "representatives": 16,
    "gods": 16,
    "homeland": 16,
    "##yers": 16,
    "##tale": 16,
    "13": 16,
    "rental": 16,
    "##boo": 16,
    "false": 16,
    "advertising": 16,
    "##avi": 16,
    "films": 16,
    "contrasting": 16,
    "desperate": 16,
    "noticed": 16,
    "##nob": 16,
    "trace": 16,
    "selected": 16,
    "touches": 16,
    "affection": 16,
    "affects": 16,
    "expressing": 16,
    "deals": 16,
    "saved": 16,
    "##jure": 16,
    "acres": 16,
    "eliminate": 16,
    "technicians": 16,
    "woodland": 16,
    "drum": 16,
    "stab": 16,
    "##ider": 16,
    "##nell": 16,
    "accompany": 16,
    "panic": 16,
    "awaited": 16,
    "##mate": 16,
    "##zi": 16,
    "deepest": 16,
    "modules": 16,
    "maintained": 16,
    "##rf": 16,
    "##rou": 16,
    "swings": 16,
    "honors": 16,
    "ridge": 16,
    "##lding": 16,
    "purposes": 16,
    "existed": 16,
    "mall": 16,
    "nightmares": 16,
    "##cke": 16,
    "orange": 16,
    "tactic": 16,
    "density": 16,
    "funded": 16,
    "##nse": 16,
    "##lessness": 16,
    "multimedia": 16,
    "culminating": 16,
    "manor": 16,
    "cues": 16,
    "outlined": 16,
    "performers": 16,
    "confronted": 16,
    "visa": 16,
    "pleasant": 16,
    "\u3001": 16,
    "##opy": 16,
    "multitude": 16,
    "spinning": 16,
    "##uise": 16,
    "##he": 16,
    "keeper": 16,
    "pm": 16,
    "##eter": 16,
    "##nta": 16,
    "dairy": 16,
    "##pel": 16,
    "eyed": 16,
    "##quin": 16,
    "unfortunately": 16,
    "fewer": 16,
    "##rump": 16,
    "generic": 16,
    "lectures": 16,
    "jewel": 16,
    "flying": 16,
    "drivers": 16,
    "vacant": 16,
    "##eorological": 16,
    "reasons": 16,
    "virtue": 16,
    "knees": 16,
    "searching": 16,
    "##yes": 16,
    "chapters": 16,
    "lightly": 16,
    "sleepy": 16,
    "costly": 16,
    "##tched": 16,
    "advise": 16,
    "##lings": 16,
    "neural": 16,
    "marble": 16,
    "applying": 16,
    "debris": 16,
    "fertility": 16,
    "##esta": 16,
    "##vour": 16,
    "##uminous": 16,
    "\u6b63": 16,
    "grief": 16,
    "##udge": 16,
    "capitalist": 16,
    "##roa": 16,
    "gripped": 16,
    "fold": 16,
    "tracing": 16,
    "lowering": 16,
    "imagined": 16,
    "representative": 16,
    "everywhere": 16,
    "pleasure": 16,
    "derived": 16,
    "segments": 16,
    "actual": 16,
    "tour": 16,
    "looks": 16,
    "showed": 16,
    "medley": 16,
    "conceptual": 16,
    "quantitative": 16,
    "##oso": 16,
    "purely": 16,
    "consumed": 16,
    "##cked": 16,
    "acclaimed": 16,
    "##rva": 16,
    "fourth": 16,
    "photo": 16,
    "cells": 16,
    "##world": 16,
    "sparks": 16,
    "blaze": 16,
    "##isk": 16,
    "passenger": 16,
    "##ortex": 16,
    "chair": 16,
    "tower": 16,
    "##dam": 16,
    "##weed": 15,
    "haze": 15,
    "##lix": 15,
    "draped": 15,
    "straw": 15,
    "##rito": 15,
    "hazardous": 15,
    "documentation": 15,
    "disappearance": 15,
    "borrow": 15,
    "fond": 15,
    "sunset": 15,
    "endangered": 15,
    "taxation": 15,
    "##cure": 15,
    "videos": 15,
    "occurring": 15,
    "##hot": 15,
    "##lish": 15,
    "tea": 15,
    "blues": 15,
    "mythological": 15,
    "underwater": 15,
    "\u540c": 15,
    "monster": 15,
    "distinguished": 15,
    "##brush": 15,
    "##ager": 15,
    "queen": 15,
    "##vu": 15,
    "debuted": 15,
    "poor": 15,
    "trusted": 15,
    "monument": 15,
    "fallen": 15,
    "layout": 15,
    "sailor": 15,
    "angels": 15,
    "relay": 15,
    "bursts": 15,
    "adjustment": 15,
    "picked": 15,
    "##yle": 15,
    "appropriate": 15,
    "lifting": 15,
    "brushes": 15,
    "headache": 15,
    "neutral": 15,
    "sake": 15,
    "exactly": 15,
    "genuinely": 15,
    "behavioral": 15,
    "blowing": 15,
    "sounded": 15,
    "expands": 15,
    "delivered": 15,
    "paintings": 15,
    "##oro": 15,
    "##pont": 15,
    "possibly": 15,
    "##set": 15,
    "dam": 15,
    "instinct": 15,
    "tips": 15,
    "intensive": 15,
    "##yu": 15,
    "##green": 15,
    "##sal": 15,
    "##sed": 15,
    "spoon": 15,
    "consistency": 15,
    "spotted": 15,
    "reflective": 15,
    "##eng": 15,
    "inherit": 15,
    "whom": 15,
    "##eve": 15,
    "##cle": 15,
    "ultra": 15,
    "insects": 15,
    "projected": 15,
    "unusual": 15,
    "objective": 15,
    "descended": 15,
    "##dine": 15,
    "coastline": 15,
    "desperately": 15,
    "picnic": 15,
    "##lder": 15,
    "occasional": 15,
    "depends": 15,
    "collecting": 15,
    "##iously": 15,
    "attire": 15,
    "scanning": 15,
    "counselor": 15,
    "suggesting": 15,
    "suggest": 15,
    "##posed": 15,
    "remaining": 15,
    "predators": 15,
    "dates": 15,
    "enforce": 15,
    "incentive": 15,
    "obscure": 15,
    "refuse": 15,
    "accurately": 15,
    "homeless": 15,
    "##ico": 15,
    "quarters": 15,
    "restless": 15,
    "sitting": 15,
    "outlines": 15,
    "##iting": 15,
    "##lore": 15,
    "orders": 15,
    "morality": 15,
    "45": 15,
    "atop": 15,
    "memorable": 15,
    "##tations": 15,
    "hire": 15,
    "turnout": 15,
    "##tics": 15,
    "else": 15,
    "##ibrating": 15,
    "##eas": 15,
    "analog": 15,
    "prevents": 15,
    "##oping": 15,
    "replacement": 15,
    "hungry": 15,
    "sensing": 15,
    "##ask": 15,
    "restored": 15,
    "##asing": 15,
    "informal": 15,
    "organizer": 15,
    "photos": 15,
    "seminal": 15,
    "crowds": 15,
    "##uve": 15,
    "##bon": 15,
    "trading": 15,
    "answers": 15,
    "doom": 15,
    "swing": 15,
    "##ho": 15,
    "##mad": 15,
    "##virus": 15,
    "##holder": 15,
    "accidents": 15,
    "##oria": 15,
    "pipeline": 15,
    "300": 15,
    "specialist": 15,
    "inquiry": 15,
    "sealed": 15,
    "slower": 15,
    "penny": 15,
    "##ites": 15,
    "runoff": 15,
    "\u9053": 15,
    "battered": 15,
    "bag": 15,
    "espionage": 15,
    "superhero": 15,
    "actually": 15,
    "ropes": 15,
    "premium": 15,
    "elegant": 15,
    "##arte": 15,
    "lucrative": 15,
    "dismissed": 15,
    "##yard": 15,
    "##aul": 15,
    "##lumber": 15,
    "robots": 15,
    "##grading": 15,
    "missed": 15,
    "aura": 15,
    "optimistic": 15,
    "vicious": 15,
    "##olate": 15,
    "##worth": 15,
    "stereo": 15,
    "noteworthy": 15,
    "successes": 15,
    "##eration": 15,
    "pair": 15,
    "entering": 15,
    "sides": 15,
    "happier": 15,
    "conceived": 15,
    "mouth": 15,
    "revived": 15,
    "nowhere": 15,
    "graphic": 15,
    "minor": 15,
    "ends": 15,
    "cooperative": 15,
    "illustrated": 15,
    "demonstrations": 15,
    "settled": 15,
    "wetland": 15,
    "manipulate": 15,
    "stems": 15,
    "##fts": 15,
    "foremost": 15,
    "##wear": 15,
    "collegiate": 15,
    "renovation": 15,
    "engineered": 15,
    "attitudes": 15,
    "prolonged": 15,
    "encouragement": 15,
    "hamlet": 15,
    "##chemist": 15,
    "mature": 15,
    "##elf": 15,
    "buried": 15,
    "rendered": 15,
    "nerve": 15,
    "##holes": 15,
    "imagery": 15,
    "depicted": 15,
    "kindness": 15,
    "##gles": 15,
    "prepares": 15,
    "asphalt": 15,
    "modeling": 15,
    "stalls": 15,
    "internship": 15,
    "##rick": 15,
    "examination": 15,
    "##bro": 15,
    "museums": 15,
    "flux": 15,
    "gifts": 15,
    "artworks": 15,
    "explorers": 15,
    "##zure": 15,
    "##pis": 15,
    "##hon": 15,
    "##rio": 15,
    "grinding": 15,
    "employer": 15,
    "visitor": 15,
    "\u98df": 15,
    "ye": 14,
    "occurs": 14,
    "garlic": 14,
    "##tis": 14,
    "prospect": 14,
    "\u57ce": 14,
    "mirrored": 14,
    "##yte": 14,
    "##sma": 14,
    "traveled": 14,
    "infamous": 14,
    "tapped": 14,
    "bands": 14,
    "commission": 14,
    "contexts": 14,
    "##hill": 14,
    "luck": 14,
    "millennium": 14,
    "##tling": 14,
    "plucked": 14,
    "rot": 14,
    "##\u00edn": 14,
    "##lson": 14,
    "##ulf": 14,
    "##eted": 14,
    "##mina": 14,
    "##hetical": 14,
    "prospects": 14,
    "surreal": 14,
    "settlers": 14,
    "##fort": 14,
    "pointed": 14,
    "##resh": 14,
    "approached": 14,
    "##holding": 14,
    "discount": 14,
    "tensions": 14,
    "waking": 14,
    "practitioner": 14,
    "##put": 14,
    "pottery": 14,
    "bass": 14,
    "opposite": 14,
    "settlement": 14,
    "charted": 14,
    "##llin": 14,
    "sponsors": 14,
    "##riel": 14,
    "##bright": 14,
    "##yan": 14,
    "##rse": 14,
    "garments": 14,
    "##rity": 14,
    "statements": 14,
    "contrary": 14,
    "##sistence": 14,
    "uprising": 14,
    "kings": 14,
    "fortunes": 14,
    "##iss": 14,
    "glossy": 14,
    "declares": 14,
    "##lio": 14,
    "girls": 14,
    "soup": 14,
    "striker": 14,
    "##quis": 14,
    "##oise": 14,
    "##fish": 14,
    "##tti": 14,
    "intake": 14,
    "las": 14,
    "##worthy": 14,
    "transitioned": 14,
    "squash": 14,
    "married": 14,
    "flat": 14,
    "sacrifice": 14,
    "groom": 14,
    "studying": 14,
    "##ulture": 14,
    "kingdom": 14,
    "##ished": 14,
    "bolt": 14,
    "rescue": 14,
    "75": 14,
    "##berries": 14,
    "##piece": 14,
    "contributors": 14,
    "##uard": 14,
    "##beat": 14,
    "assistant": 14,
    "engulfed": 14,
    "websites": 14,
    "utilizes": 14,
    "\u5149": 14,
    "poster": 14,
    "##cker": 14,
    "announcing": 14,
    "criticized": 14,
    "watched": 14,
    "##cts": 14,
    "bounce": 14,
    "explosion": 14,
    "filters": 14,
    "murmur": 14,
    "##rent": 14,
    "pipe": 14,
    "##ifiable": 14,
    "glance": 14,
    "suburbs": 14,
    "##bus": 14,
    "rhetoric": 14,
    "pounding": 14,
    "creator": 14,
    "##ume": 14,
    "pulsing": 14,
    "exploitation": 14,
    "##eu": 14,
    "linking": 14,
    "##uts": 14,
    "##rring": 14,
    "founding": 14,
    "likelihood": 14,
    "rendering": 14,
    "##lante": 14,
    "done": 14,
    "burning": 14,
    "conglomerate": 14,
    "##yclic": 14,
    "##rand": 14,
    "momentarily": 14,
    "painter": 14,
    "eventually": 14,
    "capitals": 14,
    "boundary": 14,
    "enjoyable": 14,
    "##ull": 14,
    "beef": 14,
    "stadium": 14,
    "devotion": 14,
    "brief": 14,
    "predicted": 14,
    "sufficient": 14,
    "##xe": 14,
    "textbook": 14,
    "ceremony": 14,
    "fused": 14,
    "reins": 14,
    "blow": 14,
    "cable": 14,
    "headline": 14,
    "comparative": 14,
    "fragments": 14,
    "properly": 14,
    "premise": 14,
    "sneak": 14,
    "conquered": 14,
    "controversial": 14,
    "championship": 14,
    "acid": 14,
    "acted": 14,
    "melt": 14,
    "placement": 14,
    "accounts": 14,
    "##uma": 14,
    "evaluating": 14,
    "statistical": 14,
    "jewels": 14,
    "##ani": 14,
    "projections": 14,
    "analyzed": 14,
    "##urous": 14,
    "flickering": 14,
    "predictable": 14,
    "retailer": 14,
    "remnants": 14,
    "unrest": 14,
    "paranormal": 14,
    "##uiz": 14,
    "defeat": 14,
    "tended": 14,
    "try": 14,
    "90": 14,
    "polished": 14,
    "glide": 14,
    "##zz": 14,
    "hem": 14,
    "suburb": 14,
    "##nched": 14,
    "wooden": 14,
    "recalls": 14,
    "parameters": 14,
    "conversion": 14,
    "egg": 14,
    "slash": 14,
    "tear": 14,
    "1980s": 14,
    "ethnic": 14,
    "instructor": 14,
    "##lter": 14,
    "operators": 14,
    "operated": 14,
    "gauge": 14,
    "socially": 14,
    "##fusion": 14,
    "returning": 14,
    "pizza": 14,
    "sculptor": 14,
    "recommend": 14,
    "load": 14,
    "jump": 14,
    "mechanical": 14,
    "27": 14,
    "##pute": 14,
    "##bie": 14,
    "somewhat": 14,
    "demolition": 14,
    "\u65b9": 14,
    "duck": 14,
    "##ctions": 14,
    "treaty": 14,
    "appeared": 13,
    "##cking": 13,
    "##uff": 13,
    "debt": 13,
    "merit": 13,
    "\u5c0f": 13,
    "##roper": 13,
    "contain": 13,
    "##ette": 13,
    "unconscious": 13,
    "survived": 13,
    "diamond": 13,
    "intensified": 13,
    "historians": 13,
    "defenders": 13,
    "weakness": 13,
    "##ington": 13,
    "dome": 13,
    "vines": 13,
    "evil": 13,
    "freeze": 13,
    "military": 13,
    "hop": 13,
    "##igo": 13,
    "##ella": 13,
    "aircraft": 13,
    "##\u0440": 13,
    "nets": 13,
    "litter": 13,
    "fishermen": 13,
    "accord": 13,
    "allied": 13,
    "utilized": 13,
    "recreation": 13,
    "##icorn": 13,
    "mess": 13,
    "pharmacy": 13,
    "happening": 13,
    "##xin": 13,
    "blink": 13,
    "favored": 13,
    "booking": 13,
    "##nn": 13,
    "hole": 13,
    "##isms": 13,
    "hits": 13,
    "signing": 13,
    "##ssent": 13,
    "riders": 13,
    "vintage": 13,
    "lease": 13,
    "##ira": 13,
    "sizes": 13,
    "##uration": 13,
    "hearted": 13,
    "snack": 13,
    "##jun": 13,
    "##lage": 13,
    "youths": 13,
    "mixture": 13,
    "blown": 13,
    "lecture": 13,
    "##ckle": 13,
    "rite": 13,
    "earn": 13,
    "##sian": 13,
    "##illo": 13,
    "electorate": 13,
    "##heat": 13,
    "smallest": 13,
    "pointing": 13,
    "phones": 13,
    "##stant": 13,
    "awaiting": 13,
    "##stop": 13,
    "utilize": 13,
    "diagnosis": 13,
    "graffiti": 13,
    "##esi": 13,
    "##lite": 13,
    "eh": 13,
    "##kin": 13,
    "fairy": 13,
    "##vet": 13,
    "pad": 13,
    "got": 13,
    "sort": 13,
    "prefer": 13,
    "cooler": 13,
    "fixture": 13,
    "##\u00f6": 13,
    "##plicate": 13,
    "expeditions": 13,
    "situations": 13,
    "##people": 13,
    "##vies": 13,
    "marsh": 13,
    "moisture": 13,
    "ironic": 13,
    "stranger": 13,
    "text": 13,
    "##ino": 13,
    "##stream": 13,
    "dread": 13,
    "letters": 13,
    "##lk": 13,
    "flung": 13,
    "fur": 13,
    "##osh": 13,
    "shoots": 13,
    "##cton": 13,
    "markers": 13,
    "##wide": 13,
    "flooded": 13,
    "consistently": 13,
    "writers": 13,
    "booth": 13,
    "foliage": 13,
    "vanished": 13,
    "##ifications": 13,
    "ward": 13,
    "##rdo": 13,
    "##oam": 13,
    "ruthless": 13,
    "gasping": 13,
    "organize": 13,
    "##ney": 13,
    "freeing": 13,
    "bomb": 13,
    "accent": 13,
    "mortal": 13,
    "avoiding": 13,
    "pools": 13,
    "##amel": 13,
    "sell": 13,
    "sketch": 13,
    "eclipse": 13,
    "##8": 13,
    "executing": 13,
    "worthy": 13,
    "winters": 13,
    "##logies": 13,
    "205": 13,
    "continuing": 13,
    "sensor": 13,
    "##type": 13,
    "rings": 13,
    "120": 13,
    "noticeable": 13,
    "competing": 13,
    "loudly": 13,
    "therefore": 13,
    "greet": 13,
    "hence": 13,
    "separate": 13,
    "evidenced": 13,
    "prescription": 13,
    "diplomatic": 13,
    "father": 13,
    "humming": 13,
    "##kling": 13,
    "##rable": 13,
    "ensued": 13,
    "explosive": 13,
    "precursor": 13,
    "famous": 13,
    "##sor": 13,
    "tunnels": 13,
    "broke": 13,
    "grain": 13,
    "wines": 13,
    "prone": 13,
    "##cede": 13,
    "yourself": 13,
    "faculty": 13,
    "completely": 13,
    "fault": 13,
    "salmon": 13,
    "survivors": 13,
    "2000s": 13,
    "privileged": 13,
    "##eat": 13,
    "polar": 13,
    "distinguish": 13,
    "seconds": 13,
    "singing": 13,
    "investor": 13,
    "classics": 13,
    "folds": 13,
    "fraction": 13,
    "tourist": 13,
    "generators": 13,
    "twenty": 13,
    "spanned": 13,
    "harder": 13,
    "functioning": 13,
    "dizzy": 13,
    "intentional": 13,
    "extinction": 13,
    "##yr": 13,
    "letter": 13,
    "artery": 13,
    "northwest": 13,
    "##una": 13,
    "flour": 13,
    "vault": 13,
    "##ants": 13,
    "noting": 13,
    "##ilt": 13,
    "desirable": 13,
    "laced": 13,
    "##aw": 13,
    "paying": 13,
    "murmurs": 13,
    "elemental": 13,
    "ski": 13,
    "rows": 13,
    "physiological": 13,
    "grocery": 13,
    "flipped": 13,
    "stays": 13,
    "gifted": 13,
    "butterflies": 13,
    "obsolete": 13,
    "##icks": 13,
    "unaware": 13,
    "rail": 13,
    "##rek": 13,
    "entrance": 13,
    "exhibitions": 13,
    "##lve": 13,
    "switching": 13,
    "##odus": 13,
    "argument": 13,
    "separated": 13,
    "frame": 13,
    "##udd": 13,
    "turnover": 13,
    "really": 13,
    "sends": 13,
    "##quisite": 13,
    "merchandise": 13,
    "enjoyed": 13,
    "ran": 13,
    "designers": 13,
    "##lap": 13,
    "fame": 13,
    "##tt": 13,
    "aggressive": 13,
    "commonly": 13,
    "mortality": 13,
    "##quet": 13,
    "blog": 13,
    "##hale": 13,
    "##tuated": 13,
    "allocated": 13,
    "believing": 13,
    "romance": 13,
    "\u7f8e": 13,
    "locality": 13,
    "contests": 13,
    "bursting": 13,
    "sold": 13,
    "##lug": 13,
    "204": 13,
    "titles": 13,
    "originating": 13,
    "##lind": 13,
    "\u65e5": 13,
    "##tile": 12,
    "##lai": 12,
    "hurt": 12,
    "stressed": 12,
    "##bad": 12,
    "##haw": 12,
    "##isi": 12,
    "##vation": 12,
    "drug": 12,
    "dunes": 12,
    "negative": 12,
    "##tures": 12,
    "breakfast": 12,
    "conform": 12,
    "comprehend": 12,
    "separation": 12,
    "interpretations": 12,
    "handful": 12,
    "##ong": 12,
    "##vity": 12,
    "basket": 12,
    "crying": 12,
    "##\u0435": 12,
    "##uf": 12,
    "deaf": 12,
    "squeeze": 12,
    "hat": 12,
    "explanations": 12,
    "flickered": 12,
    "removing": 12,
    "votes": 12,
    "##phine": 12,
    "floral": 12,
    "touched": 12,
    "##inn": 12,
    "vinyl": 12,
    "##nac": 12,
    "\u9752": 12,
    "##tches": 12,
    "imminent": 12,
    "##lass": 12,
    "rounds": 12,
    "cushion": 12,
    "damp": 12,
    "collision": 12,
    "personalities": 12,
    "illustration": 12,
    "##gam": 12,
    "holiday": 12,
    "motifs": 12,
    "##fled": 12,
    "##works": 12,
    "cord": 12,
    "missions": 12,
    "##rote": 12,
    "floating": 12,
    "spend": 12,
    "criteria": 12,
    "defensive": 12,
    "mercury": 12,
    "experimental": 12,
    "commence": 12,
    "icons": 12,
    "poison": 12,
    "prevailing": 12,
    "respectively": 12,
    "scars": 12,
    "##aga": 12,
    "liter": 12,
    "intimacy": 12,
    "##ith": 12,
    "varsity": 12,
    "##iter": 12,
    "##bula": 12,
    "digits": 12,
    "##vir": 12,
    "neatly": 12,
    "deepened": 12,
    "package": 12,
    "##bled": 12,
    "locked": 12,
    "controls": 12,
    "##kle": 12,
    "branches": 12,
    "applied": 12,
    "steered": 12,
    "reserve": 12,
    "##ives": 12,
    "cellular": 12,
    "bath": 12,
    "##lifting": 12,
    "##hak": 12,
    "##lip": 12,
    "batteries": 12,
    "\u516c": 12,
    "accomplish": 12,
    "acoustic": 12,
    "widen": 12,
    "tackles": 12,
    "##regard": 12,
    "quit": 12,
    "##pectator": 12,
    "##ono": 12,
    "outskirts": 12,
    "##oy": 12,
    "vice": 12,
    "carnival": 12,
    "neither": 12,
    "##name": 12,
    "remarkably": 12,
    "themed": 12,
    "bicycles": 12,
    "##asi": 12,
    "temples": 12,
    "##all": 12,
    "wireless": 12,
    "mathematical": 12,
    "\u91ce": 12,
    "ore": 12,
    "enrollment": 12,
    "urged": 12,
    "##neer": 12,
    "##fin": 12,
    "penned": 12,
    "choreography": 12,
    "dump": 12,
    "attracts": 12,
    "division": 12,
    "##owing": 12,
    "exploited": 12,
    "##lution": 12,
    "##ind": 12,
    "accounted": 12,
    "##tate": 12,
    "##ilized": 12,
    "occasion": 12,
    "##phy": 12,
    "coincide": 12,
    "##wei": 12,
    "rolls": 12,
    "##ively": 12,
    "hotel": 12,
    "##fie": 12,
    "umbrella": 12,
    "admiration": 12,
    "##idated": 12,
    "portable": 12,
    "recurring": 12,
    "##ivable": 12,
    "wash": 12,
    "67": 12,
    "##ief": 12,
    "imposed": 12,
    "##mmy": 12,
    "filter": 12,
    "skeptical": 12,
    "##renched": 12,
    "##usa": 12,
    "penalties": 12,
    "crept": 12,
    "motors": 12,
    "stopping": 12,
    "simplest": 12,
    "captains": 12,
    "##ete": 12,
    "beams": 12,
    "phone": 12,
    "overseeing": 12,
    "##lation": 12,
    "##rrel": 12,
    "##berry": 12,
    "plains": 12,
    "fatigue": 12,
    "routing": 12,
    "rides": 12,
    "absolute": 12,
    "oldest": 12,
    "dull": 12,
    "shiver": 12,
    "situated": 12,
    "rallies": 12,
    "mask": 12,
    "threw": 12,
    "length": 12,
    "sponsored": 12,
    "award": 12,
    "refers": 12,
    "bottles": 12,
    "##gna": 12,
    "eyebrows": 12,
    "2010": 12,
    "legitimate": 12,
    "weighs": 12,
    "##points": 12,
    "##ben": 12,
    "glittering": 12,
    "independently": 12,
    "completion": 12,
    "##one": 12,
    "ii": 12,
    "attempting": 12,
    "characteristic": 12,
    "pots": 12,
    "thoughtfully": 12,
    "protagonists": 12,
    "earning": 12,
    "composed": 12,
    "optional": 12,
    "twists": 12,
    "dots": 12,
    "speculation": 12,
    "earliest": 12,
    "##ologist": 12,
    "exchanged": 12,
    "eggs": 12,
    "##uit": 12,
    "pairs": 12,
    "##reed": 12,
    "retains": 12,
    "houses": 12,
    "championships": 12,
    "##broken": 12,
    "frozen": 12,
    "continually": 12,
    "##mity": 12,
    "aide": 12,
    "##dd": 12,
    "##tos": 12,
    "orientation": 12,
    "erase": 12,
    "specialists": 12,
    "attendance": 12,
    "liaison": 12,
    "observe": 12,
    "##ress": 12,
    "##sley": 12,
    "butterfly": 12,
    "rarely": 12,
    "volleyball": 12,
    "chords": 12,
    "potatoes": 12,
    "##grim": 12,
    "tangled": 12,
    "blessing": 12,
    "geared": 12,
    "exclaimed": 12,
    "wheelchair": 12,
    "lose": 12,
    "trauma": 12,
    "grades": 12,
    "monitored": 12,
    "tongue": 12,
    "instructors": 12,
    "surplus": 12,
    "diesel": 12,
    "illusion": 12,
    "##immer": 12,
    "costa": 12,
    "deception": 12,
    "seal": 12,
    "mentally": 12,
    "objects": 12,
    "##\u00e1": 12,
    "##uing": 12,
    "##form": 12,
    "conferences": 12,
    "##ille": 12,
    "##ision": 11,
    "\u6587": 11,
    "secretary": 11,
    "##nam": 11,
    "##ais": 11,
    "##rden": 11,
    "##see": 11,
    "##mus": 11,
    "##ban": 11,
    "##eves": 11,
    "teachings": 11,
    "falling": 11,
    "goat": 11,
    "fried": 11,
    "##uid": 11,
    "spinal": 11,
    "##star": 11,
    "##hore": 11,
    "sic": 11,
    "inflation": 11,
    "praise": 11,
    "grave": 11,
    "resemble": 11,
    "designated": 11,
    "absurd": 11,
    "colored": 11,
    "##bee": 11,
    "##ig": 11,
    "comb": 11,
    "resist": 11,
    "veterans": 11,
    "lid": 11,
    "##nded": 11,
    "rainforest": 11,
    "##stand": 11,
    "bicycle": 11,
    "plaza": 11,
    "magnificent": 11,
    "advisor": 11,
    "chuckle": 11,
    "execute": 11,
    "sleeves": 11,
    "supposed": 11,
    "virgin": 11,
    "hill": 11,
    "brutal": 11,
    "irregular": 11,
    "prosperous": 11,
    "##ken": 11,
    "##tend": 11,
    "amenities": 11,
    "##gnition": 11,
    "##run": 11,
    "quicker": 11,
    "strained": 11,
    "facial": 11,
    "considers": 11,
    "##owa": 11,
    "adulthood": 11,
    "tornado": 11,
    "tasting": 11,
    "##risto": 11,
    "##iled": 11,
    "slated": 11,
    "##dal": 11,
    "arid": 11,
    "tracked": 11,
    "velocity": 11,
    "##ignment": 11,
    "awakened": 11,
    "8th": 11,
    "neutrality": 11,
    "gestures": 11,
    "##bel": 11,
    "##rain": 11,
    "split": 11,
    "chemistry": 11,
    "attackers": 11,
    "##rippled": 11,
    "##ilizer": 11,
    "##phs": 11,
    "summers": 11,
    "##ddle": 11,
    "snap": 11,
    "##tee": 11,
    "##cursions": 11,
    "wishes": 11,
    "coincidence": 11,
    "\\": 11,
    "##vanna": 11,
    "trait": 11,
    "hip": 11,
    "brace": 11,
    "icon": 11,
    "slip": 11,
    "trio": 11,
    "##hal": 11,
    "culminated": 11,
    "indicate": 11,
    "theatrical": 11,
    "##illa": 11,
    "compositions": 11,
    "partnered": 11,
    "##rue": 11,
    "##wat": 11,
    "deities": 11,
    "hedge": 11,
    "consult": 11,
    "recalled": 11,
    "##esign": 11,
    "molecular": 11,
    "##latter": 11,
    "##clave": 11,
    "palm": 11,
    "rift": 11,
    "##nu": 11,
    "2nd": 11,
    "##chal": 11,
    "##iles": 11,
    "##league": 11,
    "producer": 11,
    "experimentation": 11,
    "tried": 11,
    "investigation": 11,
    "campus": 11,
    "tournament": 11,
    "highest": 11,
    "bizarre": 11,
    "realistic": 11,
    "dialect": 11,
    "requirement": 11,
    "jolt": 11,
    "##rks": 11,
    "greeted": 11,
    "realism": 11,
    "wardrobe": 11,
    "##ads": 11,
    "wars": 11,
    "physician": 11,
    "inch": 11,
    "comedic": 11,
    "protein": 11,
    "hitting": 11,
    "##tur": 11,
    "chant": 11,
    "highway": 11,
    "halfway": 11,
    "enormous": 11,
    "##nity": 11,
    "smell": 11,
    "guards": 11,
    "rent": 11,
    "dimensional": 11,
    "##ael": 11,
    "spines": 11,
    "somewhere": 11,
    "mentioning": 11,
    "deer": 11,
    "endure": 11,
    "contest": 11,
    "forcing": 11,
    "accompanied": 11,
    "##uries": 11,
    "colonization": 11,
    "receiving": 11,
    "##raj": 11,
    "\u6c34": 11,
    "beam": 11,
    "72": 11,
    "allowance": 11,
    "explorer": 11,
    "gets": 11,
    "selective": 11,
    "attain": 11,
    "modifications": 11,
    "possesses": 11,
    "sprang": 11,
    "##keeper": 11,
    "attractive": 11,
    "transports": 11,
    "##imate": 11,
    "defiance": 11,
    "bowl": 11,
    "expedition": 11,
    "parchment": 11,
    "tinged": 11,
    "inevitably": 11,
    "thumbs": 11,
    "conditioning": 11,
    "starred": 11,
    "yellow": 11,
    "hanging": 11,
    "unwanted": 11,
    "##gging": 11,
    "##lag": 11,
    "flowed": 11,
    "lip": 11,
    "highlands": 11,
    "##icide": 11,
    "enters": 11,
    "##away": 11,
    "ceased": 11,
    "demeanor": 11,
    "worrying": 11,
    "recording": 11,
    "royal": 11,
    "##eon": 11,
    "strongest": 11,
    "ambient": 11,
    "floors": 11,
    "##bor": 11,
    "fever": 11,
    "##tub": 11,
    "##roach": 11,
    "counterpart": 11,
    "goddess": 11,
    "##working": 11,
    "converted": 11,
    "##ester": 11,
    "stubborn": 11,
    "pains": 11,
    "blankets": 11,
    "letting": 11,
    "criticism": 11,
    "\u4e0a": 11,
    "\u56fd": 11,
    "##lves": 11,
    "fatty": 11,
    "85": 11,
    "lacking": 11,
    "index": 11,
    "grape": 11,
    "total": 11,
    "undertaken": 11,
    "branding": 11,
    "academics": 11,
    "scholarly": 11,
    "grab": 11,
    "##coa": 11,
    "pays": 11,
    "##mmoth": 11,
    "supermarket": 11,
    "peaks": 11,
    "spells": 11,
    "##opping": 11,
    "accomplished": 11,
    "ladder": 11,
    "bells": 11,
    "comic": 11,
    "##igh": 11,
    "##fting": 11,
    "appointment": 11,
    "hardly": 11,
    "drift": 11,
    "reinforced": 11,
    "handled": 11,
    "delayed": 11,
    "flash": 11,
    "##tain": 11,
    "puzzles": 11,
    "##ciating": 11,
    "segregation": 11,
    "appearance": 11,
    "physicist": 11,
    "enacted": 11,
    "commissioner": 11,
    "##ede": 11,
    "knot": 11,
    "diminished": 11,
    "acclaim": 11,
    "##oper": 11,
    "sparkling": 11,
    "persisted": 11,
    "hang": 11,
    "##yote": 11,
    "##runner": 11,
    "warmer": 11,
    "lenses": 11,
    "normally": 11,
    "29": 11,
    "cracked": 11,
    "##truder": 11,
    "grade": 11,
    "##arian": 11,
    "governed": 11,
    "distribute": 11,
    "##cturnal": 11,
    "owl": 11,
    "yielding": 11,
    "doctors": 11,
    "located": 11,
    "\u5929": 11,
    "commodity": 11,
    "##pphire": 10,
    "##\u0438": 10,
    "##bang": 10,
    "##oft": 10,
    "rower": 10,
    "fairies": 10,
    "monarch": 10,
    "##rix": 10,
    "biting": 10,
    "##rak": 10,
    "exact": 10,
    "journalist": 10,
    "limiting": 10,
    "temporal": 10,
    "nak": 10,
    "##dious": 10,
    "vendor": 10,
    "##eral": 10,
    "nap": 10,
    "##aws": 10,
    "##lamour": 10,
    "outbreak": 10,
    "lighter": 10,
    "shocking": 10,
    "hearing": 10,
    "##ilian": 10,
    "##acle": 10,
    "describe": 10,
    "dangerous": 10,
    "conservative": 10,
    "ample": 10,
    "clothes": 10,
    "broadcasting": 10,
    "monuments": 10,
    "swords": 10,
    "dog": 10,
    "costumes": 10,
    "rains": 10,
    "##off": 10,
    "renew": 10,
    "##nte": 10,
    "phased": 10,
    "##\u00e1s": 10,
    "poured": 10,
    "governor": 10,
    "rivalry": 10,
    "##amo": 10,
    "shiny": 10,
    "##lad": 10,
    "commodities": 10,
    "cloth": 10,
    "thumb": 10,
    "##hare": 10,
    "habit": 10,
    "##eed": 10,
    "##ister": 10,
    "dry": 10,
    "##rini": 10,
    "##hara": 10,
    "##oran": 10,
    "deadly": 10,
    "registration": 10,
    "ports": 10,
    "48": 10,
    "##theon": 10,
    "rites": 10,
    "buying": 10,
    "basis": 10,
    "profitable": 10,
    "##jack": 10,
    "snaps": 10,
    "rewarded": 10,
    "##uer": 10,
    "comprising": 10,
    "tossed": 10,
    "flags": 10,
    "palace": 10,
    "##won": 10,
    "texts": 10,
    "##ois": 10,
    "readily": 10,
    "##suse": 10,
    "appearances": 10,
    "covering": 10,
    "row": 10,
    "warn": 10,
    "##pse": 10,
    "inheritance": 10,
    "restrictions": 10,
    "editing": 10,
    "deity": 10,
    "seven": 10,
    "roller": 10,
    "critic": 10,
    "preparations": 10,
    "lengthy": 10,
    "unanimous": 10,
    "anywhere": 10,
    "trapped": 10,
    "nine": 10,
    "shelters": 10,
    "modes": 10,
    "##ifier": 10,
    "##ife": 10,
    "innocence": 10,
    "##eville": 10,
    "gaping": 10,
    "openings": 10,
    "descent": 10,
    "pricing": 10,
    "##rte": 10,
    "tunnel": 10,
    "pill": 10,
    "crimson": 10,
    "##rits": 10,
    "uniforms": 10,
    "##uke": 10,
    "##cup": 10,
    "mum": 10,
    "##rno": 10,
    "##ease": 10,
    "##rma": 10,
    "swung": 10,
    "blazing": 10,
    "##dicative": 10,
    "littered": 10,
    "treats": 10,
    "exhaustion": 10,
    "faded": 10,
    "separates": 10,
    "restrict": 10,
    "ignorance": 10,
    "##lous": 10,
    "fluent": 10,
    "album": 10,
    "artifact": 10,
    "compose": 10,
    "reassuring": 10,
    "famously": 10,
    "##hole": 10,
    "seats": 10,
    "pyramid": 10,
    "syndrome": 10,
    "##icit": 10,
    "listener": 10,
    "projection": 10,
    "##trata": 10,
    "wasted": 10,
    "##gne": 10,
    "territorial": 10,
    "owned": 10,
    "circa": 10,
    "legs": 10,
    "twitch": 10,
    "keel": 10,
    "##aux": 10,
    "##of": 10,
    "##oya": 10,
    "14th": 10,
    "prejudice": 10,
    "regain": 10,
    "terror": 10,
    "##thest": 10,
    "bliss": 10,
    "verge": 10,
    "disciplinary": 10,
    "dusk": 10,
    "purple": 10,
    "intersects": 10,
    "eccentric": 10,
    "##usk": 10,
    "##rust": 10,
    "arrows": 10,
    "positively": 10,
    "asserted": 10,
    "removed": 10,
    "rough": 10,
    "automotive": 10,
    "eligible": 10,
    "campuses": 10,
    "##will": 10,
    "proposes": 10,
    "\u4e8b": 10,
    "assumes": 10,
    "printer": 10,
    "##rna": 10,
    "sure": 10,
    "##stones": 10,
    "##itarian": 10,
    "##raft": 10,
    "##itrus": 10,
    "tissue": 10,
    "displayed": 10,
    "rainbow": 10,
    "accordingly": 10,
    "performed": 10,
    "discomfort": 10,
    "##force": 10,
    "ceremonial": 10,
    "differentiate": 10,
    "makeshift": 10,
    "trainers": 10,
    "laugh": 10,
    "##truct": 10,
    "##nos": 10,
    "##load": 10,
    "##ector": 10,
    "pork": 10,
    "##lars": 10,
    "doubling": 10,
    "asking": 10,
    "failing": 10,
    "##sty": 10,
    "intrigued": 10,
    "##ight": 10,
    "pouring": 10,
    "burned": 10,
    "swelled": 10,
    "hostile": 10,
    "dioxide": 10,
    "categories": 10,
    "intact": 10,
    "##card": 10,
    "medications": 10,
    "##root": 10,
    "##oter": 10,
    "##around": 10,
    "##nous": 10,
    "##hom": 10,
    "taxi": 10,
    "greatly": 10,
    "##lice": 10,
    "insists": 10,
    "instructions": 10,
    "delivers": 10,
    "ribbon": 10,
    "stumbling": 10,
    "pour": 10,
    "caps": 10,
    "soap": 10,
    "podium": 10,
    "##sets": 10,
    "detected": 10,
    "percentage": 10,
    "picking": 10,
    "zone": 10,
    "##gated": 10,
    "locking": 10,
    "unnecessary": 10,
    "victorious": 10,
    "responds": 10,
    "##etus": 10,
    "deck": 10,
    "##rine": 10,
    "##oris": 10,
    "tolerate": 10,
    "resurrected": 10,
    "##ei": 10,
    "glorious": 10,
    "musician": 10,
    "##iate": 10,
    "loft": 10,
    "exclusively": 10,
    "qualified": 10,
    "paddle": 10,
    "knee": 10,
    "##last": 10,
    "difficulties": 10,
    "acquiring": 10,
    "endowed": 10,
    "##laced": 10,
    "southwestern": 10,
    "soils": 10,
    "passport": 10,
    "##ugh": 10,
    "grapes": 10,
    "lawn": 10,
    "\u539f": 10,
    "satisfying": 10,
    "ton": 10,
    "cursed": 10,
    "installing": 10,
    "pipes": 10,
    "fungi": 10,
    "predominantly": 10,
    "fictional": 10,
    "trainer": 10,
    "##lude": 10,
    "warehouse": 10,
    "scratch": 10,
    "##ibi": 10,
    "lounge": 10,
    "nervous": 10,
    "northeastern": 10,
    "frenzy": 10,
    "connector": 10,
    "clearer": 10,
    "camps": 10,
    "protects": 10,
    "fa\u00e7ade": 10,
    "exclusion": 10,
    "parallels": 10,
    "##vior": 10,
    "##lanted": 10,
    "flipping": 10,
    "comparison": 10,
    "strains": 10,
    "obvious": 10,
    "##ika": 10,
    "##dering": 10,
    "regeneration": 10,
    "##grarian": 10,
    "assume": 10,
    "##sional": 10,
    "writer": 10,
    "settlements": 10,
    "regard": 10,
    "migrate": 10,
    "##nose": 10,
    "\u91d1": 10,
    "appliances": 10,
    "completed": 10,
    "racial": 10,
    "judges": 10,
    "propose": 10,
    "caress": 10,
    "aboard": 10,
    "merged": 10,
    "teenage": 10,
    "mint": 10,
    "salaries": 10,
    "##ittle": 10,
    "resides": 10,
    "conflicts": 10,
    "sharply": 10,
    "opinions": 10,
    "##rdi": 10,
    "alternate": 10,
    "cherry": 10,
    "##lop": 10,
    "comeback": 10,
    "vertex": 10,
    "wet": 9,
    "##tto": 9,
    "bend": 9,
    "##itch": 9,
    ">": 9,
    "##span": 9,
    "investigative": 9,
    "90s": 9,
    "##rumbling": 9,
    "##litz": 9,
    "##llo": 9,
    "stumble": 9,
    "compounds": 9,
    "sq": 9,
    "toe": 9,
    "##uh": 9,
    "##any": 9,
    "##culate": 9,
    "wears": 9,
    "##\u00f3": 9,
    "arrow": 9,
    "promoter": 9,
    "counsel": 9,
    "##bird": 9,
    "stamp": 9,
    "##shire": 9,
    "werewolf": 9,
    "ranked": 9,
    "##mentary": 9,
    "chip": 9,
    "breeds": 9,
    "##urance": 9,
    "farmland": 9,
    "candle": 9,
    "mornings": 9,
    "##altered": 9,
    "sings": 9,
    "nodes": 9,
    "99": 9,
    "mandated": 9,
    "regulate": 9,
    "hierarchy": 9,
    "appointments": 9,
    "bumps": 9,
    "##if": 9,
    "defending": 9,
    "beaches": 9,
    "movies": 9,
    "peoples": 9,
    "##ttered": 9,
    "confinement": 9,
    "##hali": 9,
    "boat": 9,
    "villages": 9,
    "##uki": 9,
    "happy": 9,
    "inward": 9,
    "##zo": 9,
    "##\u00e4": 9,
    "maturity": 9,
    "confronts": 9,
    "bedroom": 9,
    "##wash": 9,
    "##core": 9,
    "discoveries": 9,
    "wolf": 9,
    "bent": 9,
    "baby": 9,
    "tilted": 9,
    "affinity": 9,
    "##urg": 9,
    "scandal": 9,
    "outfits": 9,
    "##ston": 9,
    "stocks": 9,
    "initiation": 9,
    "poet": 9,
    "attraction": 9,
    "##lon": 9,
    "famed": 9,
    "shorter": 9,
    "bow": 9,
    "zu": 9,
    "detailing": 9,
    "fed": 9,
    "twins": 9,
    "tightening": 9,
    "il": 9,
    "induce": 9,
    "strange": 9,
    "##sunderstanding": 9,
    "logo": 9,
    "16th": 9,
    "promotional": 9,
    "wherein": 9,
    "sincere": 9,
    "##teral": 9,
    "##dly": 9,
    "criminals": 9,
    "##urage": 9,
    "lifted": 9,
    "majority": 9,
    "signed": 9,
    "hardwood": 9,
    "##proof": 9,
    "arithmetic": 9,
    "matched": 9,
    "dreamed": 9,
    "botanical": 9,
    "naked": 9,
    "verbal": 9,
    "suggestion": 9,
    "sounding": 9,
    "##used": 9,
    "carpet": 9,
    "antagonist": 9,
    "broadcast": 9,
    "guarantee": 9,
    "receives": 9,
    "checking": 9,
    "valleys": 9,
    "assertion": 9,
    "muted": 9,
    "necessarily": 9,
    "outlook": 9,
    "##iques": 9,
    "crosses": 9,
    "perennial": 9,
    "##als": 9,
    "consulting": 9,
    "describing": 9,
    "pills": 9,
    "conceal": 9,
    "largest": 9,
    "hoping": 9,
    "\u5e73": 9,
    "filmmakers": 9,
    "explain": 9,
    "warned": 9,
    "##orous": 9,
    "cyclists": 9,
    "cafeteria": 9,
    "nudged": 9,
    "pumps": 9,
    "##umbling": 9,
    "competence": 9,
    "packages": 9,
    "excessive": 9,
    "##anger": 9,
    "submerged": 9,
    "conception": 9,
    "politicians": 9,
    "podcast": 9,
    "trades": 9,
    "auditorium": 9,
    "infancy": 9,
    "##plate": 9,
    "outfit": 9,
    "les": 9,
    "superior": 9,
    "starter": 9,
    "exhibits": 9,
    "bubble": 9,
    "choreographer": 9,
    "inches": 9,
    "##sio": 9,
    "moonlight": 9,
    "offspring": 9,
    "##nja": 9,
    "assumed": 9,
    "excited": 9,
    "##lou": 9,
    "affirmed": 9,
    "confirms": 9,
    "audio": 9,
    "hotels": 9,
    "disclosure": 9,
    "speakers": 9,
    "hide": 9,
    "##alaya": 9,
    "nose": 9,
    "television": 9,
    "##raiser": 9,
    "flick": 9,
    "kilometer": 9,
    "electromagnetic": 9,
    "##grounds": 9,
    "soundtrack": 9,
    "proves": 9,
    "conducts": 9,
    "syntax": 9,
    "print": 9,
    "sheets": 9,
    "roaring": 9,
    "##dered": 9,
    "refused": 9,
    "transported": 9,
    "hypothesis": 9,
    "inherited": 9,
    "continuation": 9,
    "happened": 9,
    "submit": 9,
    "admitted": 9,
    "##nny": 9,
    "odd": 9,
    "##disciplinary": 9,
    "##rey": 9,
    "absorption": 9,
    "diamonds": 9,
    "prophet": 9,
    "admire": 9,
    "commentary": 9,
    "##nde": 9,
    "canyon": 9,
    "psychiatrist": 9,
    "consequently": 9,
    "##rical": 9,
    "##iator": 9,
    "\u5b89": 9,
    "combine": 9,
    "pack": 9,
    "actor": 9,
    "##ths": 9,
    "animated": 9,
    "heavyweight": 9,
    "##ube": 9,
    "hurried": 9,
    "darkened": 9,
    "##ntal": 9,
    "##osy": 9,
    "lap": 9,
    "tuning": 9,
    "hinted": 9,
    "##oped": 9,
    "technician": 9,
    "##iba": 9,
    "producing": 9,
    "filtering": 9,
    "##scher": 9,
    "databases": 9,
    "fibers": 9,
    "ruins": 9,
    "##rots": 9,
    "injected": 9,
    "tighter": 9,
    "nice": 9,
    "scholarship": 9,
    "+": 9,
    "triple": 9,
    "##logical": 9,
    "##heads": 9,
    "provisions": 9,
    "shake": 9,
    "luxurious": 9,
    "differently": 9,
    "hormones": 9,
    "##iment": 9,
    "narrated": 9,
    "22nd": 9,
    "cruel": 9,
    "##lling": 9,
    "casualties": 9,
    "camera": 9,
    "incumbent": 9,
    "suffered": 9,
    "obligation": 9,
    "impose": 9,
    "staring": 9,
    "tremendous": 9,
    "accountant": 9,
    "##boat": 9,
    "7th": 9,
    "sensations": 9,
    "bones": 9,
    "##roll": 9,
    "spontaneous": 9,
    "overwhelmed": 9,
    "pledged": 9,
    "##hine": 9,
    "contained": 9,
    "\u660e": 9,
    "##oz": 9,
    "ordeal": 9,
    "lift": 9,
    "disputes": 9,
    "garbage": 9,
    "choking": 9,
    "folks": 9,
    "federation": 9,
    "pinch": 9,
    "strand": 9,
    "religion": 9,
    "mixing": 9,
    "personality": 9,
    "shots": 9,
    "stick": 9,
    "nuts": 9,
    "impression": 9,
    "strongly": 9,
    "stripped": 9,
    "minerals": 9,
    "stored": 9,
    "debated": 9,
    "proprietor": 9,
    "displaced": 9,
    "shelf": 9,
    "jersey": 9,
    "headquarters": 9,
    "##ye": 9,
    "tropical": 9,
    "groan": 9,
    "wrist": 9,
    "backs": 9,
    "mare": 9,
    "##rug": 9,
    "brushed": 9,
    "##iri": 9,
    "smoothly": 9,
    "invaders": 9,
    "belt": 9,
    "enjoyment": 9,
    "hammer": 9,
    "originally": 9,
    "cracking": 9,
    "##pec": 9,
    "acquired": 9,
    "object": 9,
    "registered": 9,
    "\u5b50": 9,
    "##yt": 9,
    "romantic": 9,
    "tuition": 9,
    "speeches": 9,
    "returned": 9,
    "belongs": 9,
    "variations": 9,
    "suited": 9,
    "##luck": 9,
    "gameplay": 9,
    "looked": 9,
    "uncovered": 9,
    "##ums": 9,
    "endorsed": 9,
    "harassment": 9,
    "amber": 9,
    "##hetic": 9,
    "26": 9,
    "transmitted": 9,
    "##bin": 9,
    "##actor": 9,
    "##rida": 9,
    "##liers": 9,
    "dwelling": 9,
    "##rog": 9,
    "contractors": 9,
    "wary": 9,
    "tempo": 9,
    "1960s": 9,
    "ace": 9,
    "executives": 9,
    "portfolio": 9,
    "##iciency": 9,
    "identifies": 9,
    "squares": 9,
    "affairs": 9,
    "##pta": 9,
    "repetitive": 9,
    "##nks": 9,
    "feasible": 9,
    "meters": 9,
    "##chu": 9,
    "##ents": 9,
    "indicates": 9,
    "primitive": 9,
    "reside": 9,
    "##ek": 9,
    "evenings": 9,
    "##rack": 9,
    "urge": 9,
    "assisted": 9,
    "ring": 9,
    "edit": 9,
    "##yon": 9,
    "##maker": 9,
    "terrace": 9,
    "feared": 9,
    "gang": 9,
    "chances": 9,
    "28": 9,
    "monsters": 9,
    "##ediatric": 9,
    "glacier": 8,
    "crystals": 8,
    "\u043d": 8,
    "gum": 8,
    "##ours": 8,
    "scratching": 8,
    "##issa": 8,
    "##wson": 8,
    "##\u0441": 8,
    "expresses": 8,
    "##\u044b": 8,
    "compact": 8,
    "##ological": 8,
    "miracle": 8,
    "newer": 8,
    "crane": 8,
    "breathless": 8,
    "drainage": 8,
    "mail": 8,
    "##raz": 8,
    "##glia": 8,
    "duet": 8,
    "##vender": 8,
    "classification": 8,
    "immortal": 8,
    "dwellings": 8,
    "upset": 8,
    "##vio": 8,
    "horns": 8,
    "thermal": 8,
    "##ival": 8,
    "collaborators": 8,
    "poets": 8,
    "charitable": 8,
    "breaths": 8,
    "viewing": 8,
    "organ": 8,
    "erect": 8,
    "walked": 8,
    "##otive": 8,
    "decorative": 8,
    "www": 8,
    "nuclear": 8,
    "amendment": 8,
    "hillside": 8,
    "courtesy": 8,
    "medicinal": 8,
    "theirs": 8,
    "##ata": 8,
    "branch": 8,
    "ignition": 8,
    "##lification": 8,
    "darling": 8,
    "##tip": 8,
    "garment": 8,
    "progresses": 8,
    "husband": 8,
    "cubic": 8,
    "refrain": 8,
    "soldiers": 8,
    "noticing": 8,
    "##rator": 8,
    "stellar": 8,
    "twelve": 8,
    "besides": 8,
    "shaking": 8,
    "\uff08": 8,
    "invasion": 8,
    "rat": 8,
    "##aja": 8,
    "##uated": 8,
    "abrupt": 8,
    "##cluded": 8,
    "minorities": 8,
    "duration": 8,
    "fantasies": 8,
    "robes": 8,
    "claiming": 8,
    "##pheric": 8,
    "##ulet": 8,
    "jurisdictions": 8,
    "daughter": 8,
    "##aby": 8,
    "##nee": 8,
    "intimidating": 8,
    "##reta": 8,
    "fashioned": 8,
    "counting": 8,
    "sealing": 8,
    "tighten": 8,
    "sank": 8,
    "##nder": 8,
    "absent": 8,
    "celebrity": 8,
    "appeals": 8,
    "villain": 8,
    "##rovisation": 8,
    "dismantled": 8,
    "confirm": 8,
    "##blivion": 8,
    "commenced": 8,
    "##rud": 8,
    "##rang": 8,
    "innocent": 8,
    "liability": 8,
    "violin": 8,
    "suggestions": 8,
    "paralyzed": 8,
    "covers": 8,
    "authors": 8,
    "##mand": 8,
    "exhibited": 8,
    "unison": 8,
    "doubled": 8,
    "sovereign": 8,
    "occupy": 8,
    "correctly": 8,
    "expensive": 8,
    "outward": 8,
    "frustrated": 8,
    "traps": 8,
    "patronage": 8,
    "vocabulary": 8,
    "stove": 8,
    "rude": 8,
    "cans": 8,
    "bark": 8,
    "asked": 8,
    "offset": 8,
    "dressed": 8,
    "##bek": 8,
    "regulator": 8,
    "wandering": 8,
    "motor": 8,
    "absorbed": 8,
    "##cilla": 8,
    "##ride": 8,
    "drove": 8,
    "interpretation": 8,
    "##orm": 8,
    "nurses": 8,
    "##hropic": 8,
    "yard": 8,
    "directors": 8,
    "worry": 8,
    "villagers": 8,
    "write": 8,
    "hints": 8,
    "label": 8,
    "decorations": 8,
    "##ficient": 8,
    "swaying": 8,
    "##tero": 8,
    "anatomy": 8,
    "studied": 8,
    "9th": 8,
    "backseat": 8,
    "altogether": 8,
    "eventual": 8,
    "##tible": 8,
    "##ograph": 8,
    "tends": 8,
    "concerto": 8,
    "campaigning": 8,
    "enemies": 8,
    "##kers": 8,
    "##bas": 8,
    "commander": 8,
    "ballot": 8,
    "quarterly": 8,
    "trenches": 8,
    "patron": 8,
    "shove": 8,
    "`": 8,
    "eats": 8,
    "wherever": 8,
    "##rice": 8,
    "knocking": 8,
    "##cence": 8,
    "emission": 8,
    "controlling": 8,
    "sigh": 8,
    "reflex": 8,
    "shakes": 8,
    "broadband": 8,
    "slashed": 8,
    "remove": 8,
    "watts": 8,
    "limbs": 8,
    "detached": 8,
    "##uru": 8,
    "##borough": 8,
    "bullet": 8,
    "staged": 8,
    "##nst": 8,
    "##sque": 8,
    "##leigh": 8,
    "drink": 8,
    "##lde": 8,
    "##ope": 8,
    "##heim": 8,
    "##uba": 8,
    "##ond": 8,
    "certified": 8,
    "imposing": 8,
    "predictions": 8,
    "##wer": 8,
    "settle": 8,
    "##ographer": 8,
    "##mented": 8,
    "prayers": 8,
    "##wal": 8,
    "suggested": 8,
    "invade": 8,
    "##cross": 8,
    "costume": 8,
    "aided": 8,
    "verses": 8,
    "astronomer": 8,
    "institutes": 8,
    "##urn": 8,
    "##books": 8,
    "rumble": 8,
    "immigration": 8,
    "##inating": 8,
    "exceeding": 8,
    "clutch": 8,
    "##aque": 8,
    "kit": 8,
    "export": 8,
    "assisting": 8,
    "pound": 8,
    "drugs": 8,
    "amendments": 8,
    "trillion": 8,
    "scripts": 8,
    "monstrous": 8,
    "confirming": 8,
    "##tters": 8,
    "shell": 8,
    "satirical": 8,
    "menacing": 8,
    "##vable": 8,
    "indirect": 8,
    "##ott": 8,
    "##changing": 8,
    "##feit": 8,
    "brother": 8,
    "resting": 8,
    "##cher": 8,
    "explanation": 8,
    "troubles": 8,
    "bats": 8,
    "##alytic": 8,
    "canoe": 8,
    "register": 8,
    "render": 8,
    "milk": 8,
    "certainly": 8,
    "##hered": 8,
    "satisfy": 8,
    "altar": 8,
    "##mit": 8,
    "arising": 8,
    "fiercely": 8,
    "exploits": 8,
    "rub": 8,
    "worship": 8,
    "schooling": 8,
    "##vade": 8,
    "troupe": 8,
    "##ndi": 8,
    "68": 8,
    "competes": 8,
    "##entation": 8,
    "generates": 8,
    "printed": 8,
    "finite": 8,
    "##rille": 8,
    "360": 8,
    "premature": 8,
    "logging": 8,
    "repeat": 8,
    "ascended": 8,
    "traded": 8,
    "wearing": 8,
    "doubts": 8,
    "couch": 8,
    "18th": 8,
    "tenure": 8,
    "##quest": 8,
    "module": 8,
    "1950s": 8,
    "##most": 8,
    "castles": 8,
    "##ulates": 8,
    "storing": 8,
    "definitive": 8,
    "thrilled": 8,
    "lunch": 8,
    "obsession": 8,
    "lingered": 8,
    "##ogen": 8,
    "endured": 8,
    "##uns": 8,
    "occasions": 8,
    "ugly": 8,
    "assuming": 8,
    "fracture": 8,
    "inspection": 8,
    "surfing": 8,
    "nonprofit": 8,
    "##ided": 8,
    "lane": 8,
    "##vise": 8,
    "completing": 8,
    "##arel": 8,
    "##gies": 8,
    "pushes": 8,
    "locks": 8,
    "42": 8,
    "##aven": 8,
    "##zie": 8,
    "##mal": 8,
    "sting": 8,
    "mourning": 8,
    "acquire": 8,
    "spared": 8,
    "cue": 8,
    "##stituting": 8,
    "yards": 8,
    "algae": 8,
    "##voy": 8,
    "washed": 8,
    "gymnasium": 8,
    "surgery": 8,
    "##track": 8,
    "##putation": 8,
    "makeup": 8,
    "hostage": 8,
    "flaws": 8,
    "stops": 8,
    "beg": 8,
    "##tring": 8,
    "archaic": 8,
    "overly": 8,
    "fictitious": 8,
    "suspicious": 8,
    "##uished": 8,
    "homework": 8,
    "interesting": 8,
    "shore": 8,
    "##lating": 8,
    "interior": 8,
    "births": 8,
    "instantly": 8,
    "##bate": 8,
    "##ito": 8,
    "examining": 8,
    "knots": 8,
    "55": 8,
    "contrasts": 8,
    "contributor": 8,
    "\u90e8": 8,
    "appointed": 8,
    "gothic": 8,
    "##rson": 8,
    "archive": 8,
    "cousin": 8,
    "##hab": 8,
    "descends": 8,
    "\u771f": 8,
    "bearer": 8,
    "salvage": 8,
    "displaying": 8,
    "decree": 8,
    "injection": 8,
    "appreciated": 8,
    "slightly": 8,
    "choked": 8,
    "##\u00b0": 8,
    "ornate": 8,
    "##uria": 8,
    "\u6708": 8,
    "##lta": 8,
    "dressing": 8,
    "##lvin": 8,
    "##finity": 7,
    "##erton": 7,
    "##uz": 7,
    "##bill": 7,
    "northeast": 7,
    "softer": 7,
    "beach": 7,
    "##wich": 7,
    "chest": 7,
    "airports": 7,
    "##raith": 7,
    "scaled": 7,
    "##tras": 7,
    "rowing": 7,
    "dissolved": 7,
    "wax": 7,
    "fancy": 7,
    "##\u043d": 7,
    "starring": 7,
    "##ndra": 7,
    "null": 7,
    "airborne": 7,
    "upside": 7,
    "throwing": 7,
    "##mot": 7,
    "intervene": 7,
    "utterly": 7,
    "rocks": 7,
    "##kan": 7,
    "suffer": 7,
    "divisions": 7,
    "dreaming": 7,
    "wound": 7,
    "apartment": 7,
    "##ised": 7,
    "corps": 7,
    "reggae": 7,
    "transmit": 7,
    "furnace": 7,
    "##rik": 7,
    "##mered": 7,
    "##ator": 7,
    "recommendation": 7,
    "##cine": 7,
    "##reaked": 7,
    "formally": 7,
    "##rrie": 7,
    "##rmaid": 7,
    "dagger": 7,
    "##reole": 7,
    "##udo": 7,
    "inflammation": 7,
    "##mbo": 7,
    "\u9ad8": 7,
    "##sson": 7,
    "wrap": 7,
    "deeds": 7,
    "stained": 7,
    "##cens": 7,
    "\uff09": 7,
    "releasing": 7,
    "progressively": 7,
    "geological": 7,
    "werewolves": 7,
    "blacksmith": 7,
    "##iner": 7,
    "botanist": 7,
    "journalists": 7,
    "broker": 7,
    "##rae": 7,
    "reasonable": 7,
    "stole": 7,
    "commit": 7,
    "sulfur": 7,
    "infrared": 7,
    "##nica": 7,
    "gases": 7,
    "voltage": 7,
    "loops": 7,
    "virus": 7,
    "repertoire": 7,
    "celebrities": 7,
    "recruiting": 7,
    "originate": 7,
    "underworld": 7,
    "programmer": 7,
    "summon": 7,
    "wire": 7,
    "##cale": 7,
    "##gio": 7,
    "gospel": 7,
    "immigrant": 7,
    "##rima": 7,
    "nitrogen": 7,
    "seldom": 7,
    "marched": 7,
    "miracles": 7,
    "misconduct": 7,
    "comment": 7,
    "giggle": 7,
    "orbit": 7,
    "verify": 7,
    "thriller": 7,
    "versions": 7,
    "stern": 7,
    "electro": 7,
    "grasping": 7,
    "prominently": 7,
    "wins": 7,
    "banquet": 7,
    "outlets": 7,
    "pole": 7,
    "##like": 7,
    "cookie": 7,
    "prestige": 7,
    "demise": 7,
    "sore": 7,
    "##bbling": 7,
    "borrowed": 7,
    "dissolve": 7,
    "##ato": 7,
    "guarantees": 7,
    "comparing": 7,
    "tempting": 7,
    "curator": 7,
    "medicines": 7,
    "inflicted": 7,
    "supervisor": 7,
    "##ntin": 7,
    "journals": 7,
    "equals": 7,
    "##rns": 7,
    "phases": 7,
    "##ropriation": 7,
    "##plex": 7,
    "regulating": 7,
    "remedy": 7,
    "prevalence": 7,
    "=": 7,
    "killer": 7,
    "simulated": 7,
    "##pair": 7,
    "negotiations": 7,
    "concealed": 7,
    "sir": 7,
    "##rrence": 7,
    "##grove": 7,
    "cemetery": 7,
    "##sia": 7,
    "##py": 7,
    "##chemical": 7,
    "##cise": 7,
    "entertaining": 7,
    "oversee": 7,
    "##ologists": 7,
    "contaminated": 7,
    "photographs": 7,
    "criminal": 7,
    "grandparents": 7,
    "##pie": 7,
    "##uad": 7,
    "##standing": 7,
    "merits": 7,
    "##ater": 7,
    "carpenter": 7,
    "##bbled": 7,
    "consent": 7,
    "upheld": 7,
    "transporting": 7,
    "interacting": 7,
    "horse": 7,
    "ferry": 7,
    "##rators": 7,
    "torn": 7,
    "##lake": 7,
    "envy": 7,
    "pits": 7,
    "##kening": 7,
    "watches": 7,
    "beside": 7,
    "novels": 7,
    "systematically": 7,
    "##master": 7,
    "uneasy": 7,
    "cluster": 7,
    "tongues": 7,
    "##lled": 7,
    "dropping": 7,
    "tissues": 7,
    "choir": 7,
    "brigade": 7,
    "##ccelerator": 7,
    "harvested": 7,
    "participated": 7,
    "melancholy": 7,
    "stopped": 7,
    "governing": 7,
    "quote": 7,
    "proposals": 7,
    "##plating": 7,
    "##lund": 7,
    "climax": 7,
    "referring": 7,
    "favorable": 7,
    "substitute": 7,
    "algebra": 7,
    "overlooking": 7,
    "miniature": 7,
    "archives": 7,
    "diagnosed": 7,
    "##lik": 7,
    "orchestral": 7,
    "tribes": 7,
    "earnings": 7,
    "subsequently": 7,
    "patrols": 7,
    "##ncia": 7,
    "##gai": 7,
    "##dynamic": 7,
    "experimenting": 7,
    "25th": 7,
    "distinction": 7,
    "birthplace": 7,
    "linguist": 7,
    "stacks": 7,
    "talks": 7,
    "um": 7,
    "##cursion": 7,
    "43": 7,
    "wealthy": 7,
    "2008": 7,
    "quantity": 7,
    "elsewhere": 7,
    "2005": 7,
    "##cks": 7,
    "sighs": 7,
    "##biotics": 7,
    "##imes": 7,
    "apron": 7,
    "temptation": 7,
    "diary": 7,
    "cerebral": 7,
    "##ceived": 7,
    "fascinated": 7,
    "tie": 7,
    "myself": 7,
    "bills": 7,
    "copper": 7,
    "##bt": 7,
    "23rd": 7,
    "fireworks": 7,
    "sacrifices": 7,
    "##hp": 7,
    "fixing": 7,
    "##obbing": 7,
    "volcano": 7,
    "##peculative": 7,
    "##poradic": 7,
    "##sel": 7,
    "80s": 7,
    "piano": 7,
    "##esis": 7,
    "bacteria": 7,
    "2019": 7,
    "mapped": 7,
    "screenplay": 7,
    "##rgo": 7,
    "##ggles": 7,
    "manifold": 7,
    "##ural": 7,
    "disability": 7,
    "leather": 7,
    "amusement": 7,
    "grandfather": 7,
    "drain": 7,
    "arguing": 7,
    "licensed": 7,
    "##fest": 7,
    "membership": 7,
    "soaking": 7,
    "teeth": 7,
    "outer": 7,
    "rogue": 7,
    "prohibit": 7,
    "##eous": 7,
    "expressive": 7,
    "presentations": 7,
    "confessed": 7,
    "exterior": 7,
    "stimulation": 7,
    "ruled": 7,
    "prototype": 7,
    "##ducing": 7,
    "78": 7,
    "##dles": 7,
    "outline": 7,
    "##rism": 7,
    "bestowed": 7,
    "sly": 7,
    "promotions": 7,
    "wrestling": 7,
    "installed": 7,
    "teammates": 7,
    "##ku": 7,
    "##membrance": 7,
    "lover": 7,
    "confrontation": 7,
    "##plied": 7,
    "accident": 7,
    "comprises": 7,
    "##mis": 7,
    "obligations": 7,
    "winners": 7,
    "liberties": 7,
    "lattice": 7,
    "praised": 7,
    "##vocation": 7,
    "##ago": 7,
    "arrives": 7,
    "recipients": 7,
    "fearing": 7,
    "surgeon": 7,
    "complexes": 7,
    "narrator": 7,
    "internationally": 7,
    "accounting": 7,
    "##lying": 7,
    "##rr": 7,
    "##cier": 7,
    "erupted": 7,
    "mole": 7,
    "blade": 7,
    "slippery": 7,
    "##ued": 7,
    "##layer": 7,
    "incomplete": 7,
    "portions": 7,
    "##gant": 7,
    "documenting": 7,
    "82": 7,
    "roared": 7,
    "specializes": 7,
    "imprint": 7,
    "supplier": 7,
    "warmly": 7,
    "compatibility": 7,
    "weighed": 7,
    "##pal": 7,
    "circuits": 7,
    "ambiguous": 7,
    "rebuild": 7,
    "teenager": 7,
    "patriarch": 7,
    "apprentice": 7,
    "freshwater": 7,
    "developmental": 7,
    "lust": 7,
    "nerves": 7,
    "##cut": 7,
    "practicing": 7,
    "node": 7,
    "portrayed": 7,
    "naive": 7,
    "cleared": 7,
    "halted": 7,
    "rubble": 7,
    "##licit": 7,
    "##erial": 7,
    "##tically": 7,
    "weekends": 7,
    "issued": 7,
    "adequately": 7,
    "outsider": 7,
    "unused": 7,
    "##anche": 7,
    "assembled": 7,
    "hesitant": 7,
    "##ader": 7,
    "thereof": 7,
    "relatively": 7,
    "desired": 7,
    "enforced": 7,
    "accepted": 7,
    "curves": 7,
    "graduate": 7,
    "leveled": 7,
    "constitutes": 7,
    "unless": 7,
    "cardinal": 7,
    "##horse": 7,
    "hatch": 7,
    "gliding": 7,
    "toast": 7,
    "faithful": 7,
    "##loy": 7,
    "hundreds": 7,
    "encompassed": 7,
    "sketches": 7,
    "upper": 7,
    "refer": 7,
    "honesty": 7,
    "bidding": 7,
    "##jord": 7,
    "fortification": 7,
    "##ats": 7,
    "overrun": 7,
    "neighbor": 7,
    "voiced": 7,
    "assistants": 7,
    "stunt": 7,
    "frantic": 7,
    "splendid": 7,
    "swim": 7,
    "seeded": 7,
    "##sky": 7,
    "knife": 7,
    "immigrants": 7,
    "swayed": 7,
    "##ock": 7,
    "hardened": 7,
    "accompanying": 7,
    "pod": 7,
    "donation": 7,
    "messenger": 7,
    "counters": 7,
    "surpassed": 7,
    "bags": 7,
    "sung": 7,
    "requests": 7,
    "builders": 7,
    "attempted": 7,
    "squad": 7,
    "##gers": 7,
    "drinking": 7,
    "robot": 7,
    "anxious": 7,
    "cousins": 7,
    "dress": 7,
    "eight": 7,
    "runway": 7,
    "\u53f2": 7,
    "rang": 7,
    "kilometers": 7,
    "##vant": 7,
    "sciences": 7,
    "##marked": 7,
    "entrusted": 7,
    "##cles": 7,
    "mining": 7,
    "##rdon": 7,
    "##pants": 7,
    "firefighters": 7,
    "##iman": 7,
    "##rten": 7,
    "philosopher": 7,
    "stealing": 7,
    "upgraded": 7,
    "weigh": 7,
    "maintains": 7,
    "recruit": 7,
    "prospective": 7,
    "##pus": 7,
    "aunt": 7,
    "##esh": 7,
    "replaces": 7,
    "##roi": 7,
    "church": 7,
    "##ark": 7,
    "\u672c": 7,
    "sang": 7,
    "goose": 7,
    "uncle": 7,
    "##kel": 7,
    "journalism": 6,
    "ideological": 6,
    "dye": 6,
    "##pile": 6,
    "##lda": 6,
    "##\u043b": 6,
    "##\u0437": 6,
    "##\u043c": 6,
    "##haling": 6,
    "##aa": 6,
    "##finder": 6,
    "benefited": 6,
    "##ryl": 6,
    "pirates": 6,
    "##ggy": 6,
    "altitudes": 6,
    "##ilde": 6,
    "answering": 6,
    "consisting": 6,
    "##hm": 6,
    "uh": 6,
    "township": 6,
    "##ssi": 6,
    "drops": 6,
    "##utive": 6,
    "tentative": 6,
    "bait": 6,
    "##wning": 6,
    "##sts": 6,
    "poles": 6,
    "##sburg": 6,
    "##verted": 6,
    "capitalism": 6,
    "simplified": 6,
    "siblings": 6,
    "collections": 6,
    "##dized": 6,
    "registers": 6,
    "##uil": 6,
    "##ators": 6,
    "##has": 6,
    "duel": 6,
    "##uel": 6,
    "venom": 6,
    "unrelated": 6,
    "##rville": 6,
    "pets": 6,
    "##\u0434": 6,
    "plausible": 6,
    "scoring": 6,
    "polling": 6,
    "formulation": 6,
    "southwest": 6,
    "caste": 6,
    "##ont": 6,
    "##angelo": 6,
    "95": 6,
    "throne": 6,
    "revision": 6,
    "reconcile": 6,
    "forestry": 6,
    "##dance": 6,
    "seize": 6,
    "impaired": 6,
    "coded": 6,
    "##ulo": 6,
    "resembled": 6,
    "sink": 6,
    "announce": 6,
    "##oll": 6,
    "sophomore": 6,
    "personally": 6,
    "crest": 6,
    "revised": 6,
    "hosts": 6,
    "harmless": 6,
    "appearing": 6,
    "drafting": 6,
    "concerts": 6,
    "##logy": 6,
    "glad": 6,
    "##ssie": 6,
    "raging": 6,
    "flashlight": 6,
    "##flies": 6,
    "particle": 6,
    "phrases": 6,
    "laps": 6,
    "comprised": 6,
    "nail": 6,
    "episode": 6,
    "sheet": 6,
    "ads": 6,
    "slang": 6,
    "##num": 6,
    "swallow": 6,
    "amazing": 6,
    "candidacy": 6,
    "\u7530": 6,
    "##kles": 6,
    "##erick": 6,
    "##chin": 6,
    "impulse": 6,
    "observatory": 6,
    "##vie": 6,
    "##imating": 6,
    "worst": 6,
    "sections": 6,
    "eligibility": 6,
    "weaken": 6,
    "##lette": 6,
    "coup": 6,
    "##bar": 6,
    "gigs": 6,
    "##rington": 6,
    "rendition": 6,
    "undertake": 6,
    "neck": 6,
    "intentionally": 6,
    "sequence": 6,
    "releases": 6,
    "underneath": 6,
    "##copic": 6,
    "##cakes": 6,
    "patrol": 6,
    "exceptionally": 6,
    "6th": 6,
    "##tien": 6,
    "cube": 6,
    "coordinating": 6,
    "tank": 6,
    "shallow": 6,
    "reporter": 6,
    "##din": 6,
    "qualifications": 6,
    "temporarily": 6,
    "doctrine": 6,
    "huddled": 6,
    "sculpted": 6,
    "##cue": 6,
    "translation": 6,
    "nevertheless": 6,
    "margin": 6,
    "ache": 6,
    "ranges": 6,
    "##aria": 6,
    "lucky": 6,
    "judged": 6,
    "##eak": 6,
    "rattled": 6,
    "##ades": 6,
    "##sle": 6,
    "compartment": 6,
    "##cial": 6,
    "##walk": 6,
    "##lee": 6,
    "##tern": 6,
    "opponents": 6,
    "##ctors": 6,
    "skip": 6,
    "{": 6,
    "hormone": 6,
    "spacecraft": 6,
    "articulated": 6,
    "premises": 6,
    "intermittent": 6,
    "diaspora": 6,
    "bundle": 6,
    "dipped": 6,
    "republic": 6,
    "friction": 6,
    "jurisdiction": 6,
    "dirt": 6,
    "assaults": 6,
    "heels": 6,
    "##pliant": 6,
    "##zled": 6,
    "##volved": 6,
    "samples": 6,
    "##sso": 6,
    "##ckoned": 6,
    "##emann": 6,
    "##say": 6,
    "equations": 6,
    "##breaker": 6,
    "##\u00f1a": 6,
    "##aru": 6,
    "font": 6,
    "feathers": 6,
    "cathedral": 6,
    "##20": 6,
    "heaven": 6,
    "##asa": 6,
    "##enne": 6,
    "conventions": 6,
    "bandwidth": 6,
    "doorway": 6,
    "##pree": 6,
    "clearing": 6,
    "correspondent": 6,
    "pilots": 6,
    "immunity": 6,
    "limb": 6,
    "manufacturer": 6,
    "reads": 6,
    "##mie": 6,
    "broadcasts": 6,
    "restricted": 6,
    "earthquakes": 6,
    "knock": 6,
    "difficulty": 6,
    "##ulter": 6,
    "lethal": 6,
    "polls": 6,
    "damages": 6,
    "arguably": 6,
    "dangerously": 6,
    "4th": 6,
    "##sey": 6,
    "attribute": 6,
    "departed": 6,
    "##versing": 6,
    "##oan": 6,
    "declaring": 6,
    "buyers": 6,
    "##odes": 6,
    "ballads": 6,
    "##pear": 6,
    "visiting": 6,
    "eminent": 6,
    "acronym": 6,
    "desperation": 6,
    "##\u00f8": 6,
    "chained": 6,
    "lace": 6,
    "notch": 6,
    "\u4e0b": 6,
    "pierced": 6,
    "activated": 6,
    "wedding": 6,
    "tossing": 6,
    "##etta": 6,
    "numerical": 6,
    "timber": 6,
    "##pent": 6,
    "comfortable": 6,
    "nesting": 6,
    "##tisfaction": 6,
    "horror": 6,
    "physicians": 6,
    "##uld": 6,
    "obscured": 6,
    "inconsistent": 6,
    "contender": 6,
    "cow": 6,
    "accumulation": 6,
    "shoot": 6,
    "bulk": 6,
    "eroded": 6,
    "##spense": 6,
    "reservoir": 6,
    "directing": 6,
    "overlap": 6,
    "woke": 6,
    "##nical": 6,
    "mock": 6,
    "grasped": 6,
    "narrowing": 6,
    "declare": 6,
    "usable": 6,
    "circulation": 6,
    "##conscious": 6,
    "attached": 6,
    "vengeance": 6,
    "posters": 6,
    "verified": 6,
    "creep": 6,
    "comedy": 6,
    "deaths": 6,
    "shot": 6,
    "turtles": 6,
    "healer": 6,
    "attested": 6,
    "examine": 6,
    "##licing": 6,
    "suitable": 6,
    "reconstruction": 6,
    "joints": 6,
    "spider": 6,
    "thy": 6,
    "evenly": 6,
    "mistakes": 6,
    "surely": 6,
    "energies": 6,
    "minus": 6,
    "furnishings": 6,
    "reunion": 6,
    "progressed": 6,
    "piercing": 6,
    "##far": 6,
    "##ione": 6,
    "deficit": 6,
    "##rants": 6,
    "biggest": 6,
    "magazine": 6,
    "rebels": 6,
    "irrelevant": 6,
    "loose": 6,
    "fixtures": 6,
    "newsletter": 6,
    "ankle": 6,
    "fetch": 6,
    "rebellious": 6,
    "negotiation": 6,
    "oh": 6,
    "gazes": 6,
    "##cript": 6,
    "mate": 6,
    "##ski": 6,
    "periphery": 6,
    "differing": 6,
    "##shu": 6,
    "##boarding": 6,
    "##yra": 6,
    "mammals": 6,
    "vein": 6,
    "finals": 6,
    "##rith": 6,
    "##cating": 6,
    "##urning": 6,
    "relegated": 6,
    "merchants": 6,
    "##buster": 6,
    "##gent": 6,
    "supremacy": 6,
    "visibly": 6,
    "trucks": 6,
    "abandon": 6,
    "continental": 6,
    "##cchi": 6,
    "horn": 6,
    "signatures": 6,
    "barrel": 6,
    "benches": 6,
[...]
